{"<|endoftext|>":0,"!":1,"\"":2,"#":3,"$":4,"%":5,"&":6,"'":7,"(":8,")":9,"*":10,"+":11,",":12,"-":13,".":14,"/":15,"0":16,"1":17,"2":18,"3":19,"4":20,"5":21,"6":22,"7":23,"8":24,"9":25,":":26,";":27,"<":28,"=":29,">":30,"?":31,"@":32,"A":33,"B":34,"C":35,"D":36,"E":37,"F":38,"G":39,"H":40,"I":41,"J":42,"K":43,"L":44,"M":45,"N":46,"O":47,"P":48,"Q":49,"R":50,"S":51,"T":52,"U":53,"V":54,"W":55,"X":56,"Y":57,"Z":58,"[":59,"\\":60,"]":61,"^":62,"_":63,"`":64,"a":65,"b":66,"c":67,"d":68,"e":69,"f":70,"g":71,"h":72,"i":73,"j":74,"k":75,"l":76,"m":77,"n":78,"o":79,"p":80,"q":81,"r":82,"s":83,"t":84,"u":85,"v":86,"w":87,"x":88,"y":89,"z":90,"{":91,"|":92,"}":93,"~":94,"¡":95,"¢":96,"£":97,"¤":98,"¥":99,"¦":100,"§":101,"¨":102,"©":103,"ª":104,"«":105,"¬":106,"®":107,"¯":108,"°":109,"±":110,"²":111,"³":112,"´":113,"µ":114,"¶":115,"·":116,"¸":117,"¹":118,"º":119,"»":120,"¼":121,"½":122,"¾":123,"¿":124,"À":125,"Á":126,"Â":127,"Ã":128,"Ä":129,"Å":130,"Æ":131,"Ç":132,"È":133,"É":134,"Ê":135,"Ë":136,"Ì":137,"Í":138,"Î":139,"Ï":140,"Ð":141,"Ñ":142,"Ò":143,"Ó":144,"Ô":145,"Õ":146,"Ö":147,"×":148,"Ø":149,"Ù":150,"Ú":151,"Û":152,"Ü":153,"Ý":154,"Þ":155,"ß":156,"à":157,"á":158,"â":159,"ã":160,"ä":161,"å":162,"æ":163,"ç":164,"è":165,"é":166,"ê":167,"ë":168,"ì":169,"í":170,"î":171,"ï":172,"ð":173,"ñ":174,"ò":175,"ó":176,"ô":177,"õ":178,"ö":179,"÷":180,"ø":181,"ù":182,"ú":183,"û":184,"ü":185,"ý":186,"þ":187,"ÿ":188,"Ā":189,"ā":190,"Ă":191,"ă":192,"Ą":193,"ą":194,"Ć":195,"ć":196,"Ĉ":197,"ĉ":198,"Ċ":199,"ċ":200,"Č":201,"č":202,"Ď":203,"ď":204,"Đ":205,"đ":206,"Ē":207,"ē":208,"Ĕ":209,"ĕ":210,"Ė":211,"ė":212,"Ę":213,"ę":214,"Ě":215,"ě":216,"Ĝ":217,"ĝ":218,"Ğ":219,"ğ":220,"Ġ":221,"ġ":222,"Ģ":223,"ģ":224,"Ĥ":225,"ĥ":226,"Ħ":227,"ħ":228,"Ĩ":229,"ĩ":230,"Ī":231,"ī":232,"Ĭ":233,"ĭ":234,"Į":235,"į":236,"İ":237,"ı":238,"Ĳ":239,"ĳ":240,"Ĵ":241,"ĵ":242,"Ķ":243,"ķ":244,"ĸ":245,"Ĺ":246,"ĺ":247,"Ļ":248,"ļ":249,"Ľ":250,"ľ":251,"Ŀ":252,"ŀ":253,"Ł":254,"ł":255,"Ń":256,"á»":257,"áº":258,"ng":259,"Ġt":260,"Ġc":261,"ĠÄ":262,"nh":263,"ĠÄĳ":264,"Ãł":265,"há»":266,"Æ°":267,"Ġv":268,"Ã¡":269,"Ġl":270,"iá»":271,"Ġb":272,"hÃ":273,"áº£":274,"Ġnh":275,"áº¿":276,"á»Ļ":277,"Æ°á»":278,"Ġtr":279,"Ġm":280,"Ġs":281,"Ġn":282,"Ġk":283,"Ġcá»":284,"áº¥":285,"Ġth":286,"Ġh":287,"Ġng":288,"áº¡":289,"Ġp":290,"Ã´":291,"Ã¡c":292,"Ã³":293,"Ġg":294,"§a":295,"Ġd":296,"Ãª":297,"Ġcá»§a":298,"ĠvÃł":299,"Ġch":300,"ĠÄĳá»":301,"iá»ĩ":302,"Ã¢":303,"Æ¡":304,"qu":305,"Ġthá»":306,"Ġvá»":307,"áºŃ":308,"Ġph":309,"á»ĳ":310,"Ġqu":311,"Ġhá»":312,"Ġchá»":313,"ĠlÃł":314,"Ãªn":315,"¯ng":316,"iáº¿":317,"Ġtá»":318,"..":319,"Ġr":320,"Ġá»":321,"áº¥t":322,"Ġx":323,"Ã£":324,"Ŀi":325,"Ã¢n":326,"áº§":327,"Ã´ng":328,"áº£n":329,"á»¯ng":330,"ong":331,"ĠcÃ¡c":332,"Ľi":333,"á»±":334,"Ġnhá»¯ng":335,"ĠchÃ":336,"á»Ļt":337,"Æ°á»£":338,"ch":339,"Ġgi":340,"áº¡i":341,"an":342,"Äĥ":343,"Ġ1":344,"©c":345,"hÃ´":346,"ĠT":347,"Ã¬":348,"Ġmá»Ļt":349,"uy":350,"Ġkh":351,"ĠN":352,"ĠcÃ³":353,"Ġ-":354,"hÃ´ng":355,"Æ°á»Ŀi":356,"Æ°á»£c":357,"Æ°á»Ľ":358,"ĠÄĲ":359,"ĠC":360,"Ġtrong":361,"á»ĭ":362,"áº§n":363,"Äĳ":364,"oÃł":365,"iá»ģ":366,"áº£i":367,"ĠÄĳá»Ļ":368,"ÃŃ":369,"ĠÄĳÃ£":370,"Æ°á»Ľc":371,"Ãłnh":372,"Ġá»Ł":373,"Ãº":374,"ĠÄĳÆ°á»£c":375,"--":376,"Ġngh":377,"Ġta":378,"Ãły":379,"ĠÄĳÃ³":380,"ĠcÃ´ng":381,"iÃªn":382,"iá»ĩn":383,"ĠngÆ°á»Ŀi":384,"anh":385,"Ġcho":386,"ĠB":387,"ĠkhÃ´ng":388,"iá»ĥ":389,"Ġlá»":390,"Ġvá»Ľi":391,"Æ°Æ¡":392,"ai":393,"iáº¿n":394,"Ä©":395,"ĠthÃ":396,"Æ°Æ¡ng":397,"Ġsá»±":398,"á»Ļc":399,"inh":400,"Ġmá»":401,"Ġ(":402,"Ġhá»Ļ":403,"oÃłn":404,"áº¯":405,"áº·":406,"....":407,"áº¿t":408,"ĠchÃŃ":409,"Ġchá»§":410,"Ã¬nh":411,"áº¥y":412,"ao":413,"áº±":414,"áºŃn":415,"ĠP":416,"Ġhá»Ļi":417,"áº£ng":418,"ĠdÃ¢n":419,"ung":420,"Ġvá»ģ":421,"Å©":422,"ĠM":423,"ĠnhÆ°":424,"Ġbáº£n":425,"Ġsáº£n":426,"iá»ģu":427,"en":428,"áºŃp":429,"ĠphÃ¡":430,"áº±ng":431,"ĠtÆ°":432,"Ġsá»":433,"iá»ĩc":434,"ºng":435,"Ġhá»į":436,"Ã½":437,"Ġra":438,"Ġpháº£i":439,"uá»Ļc":440,"Ã¡ng":441,"ĠÄĳá»ĭ":442,"Ġquy":443,"ĠL":444,"ĠÄĳá»Ļng":445,"ay":446,"Ã¡o":447,"Ġgiá»":448,"á»ģ":449,"Ġthá»ĥ":450,"ĠV":451,"áº¥p":452,"ĠH":453,"Æ°á»Ŀ":454,"ĠnhÃ¢n":455,"Ġbá»":456,"Ã¢y":457,"Ãło":458,"Ã´i":459,"Äĥm":460,"Ġphá»":461,"¥ng":462,"Ġho":463,"áº¿n":464,"Ġsá»ĳ":465,"áºŃt":466,"iáº¿t":467,"Ġ18":468,"ĠhÃ":469,"Ġviá»ĩc":470,"in":471,"±c":472,"Æ°á»Ŀng":473,"Ġcáº£":474,"ĠchÃŃnh":475,"ĠmÃł":476,"Ã²":477,"Ä©a":478,"ĠnÃ³":479,"uáº¥t":480,"uá»ĳ":481,"au":482,"áº§u":483,"ĠnÆ°á»Ľc":484,"Ġbá»Ļ":485,"Ġláº¡i":486,"ĠchÃºng":487,"Ġ2":488,"Äĥng":489,"Ã¹":490,"áº½":491,"ĠcÃ¡ch":492,"Ġtrá»":493,"ĵng":494,"ĠÄĳá»ĥ":495,"ĠlÃłm":496,"ĠnghÄ©a":497,"----":498,"Å©ng":499,"ĠthÃ¬":500,"ĠÄĳá»ģ":501,"tr":502,"Ãµ":503,"Ġchá»ī":504,"ĠnÃły":505,"Ã¡i":506,"ĠÄĳáº¿n":507,"ĠthÃłnh":508,"Ġxuáº¥t":509,"Æ¡n":510,"Ãłi":511,"ĠxÃ£":512,"Ãłng":513,"Ġkhá»":514,"ĳi":515,"ĠphÃ":516,"áº©":517,"Ġtrá»ĭ":518,"Ã¡ch":519,"Ġdo":520,"áº¡o":521,"á»ģn":522,"ĠnÄĥm":523,"iá»ĩp":524,"ĠvÃło":525,"Ġhiá»ĩn":526,"Ġtá»«":527,"ĳng":528,"á»Ļng":529,"iá»ĥu":530,"Ġmáº¡":531,"Ġlu":532,"ĠnhÃł":533,"ĠthÃ¡ng":534,"¥c":535,"Ġáº¥y":536,"Ġquan":537,"ĠNg":538,"Ã¡n":539,"eo":540,"ĠtÃ´i":541,"Ġcáº¥p":542,"ang":543,"ÃŃch":544,"ĠcÅ©ng":545,"........":546,"uyá»":547,"ĠA":548,"Ġnháº¥t":549,"Ġthá»±c":550,"Ã´n":551,"Ġtáº¿":552,"am":553,"Ġgá»":554,"Ġsáº½":555,"Ġná»":556,"Ġ3":557,"á»ĳc":558,"Ġcuá»Ļc":559,"uyÃªn":560,"th":561,"áº¥n":562,"ĠÄĳá»ĭnh":563,"Ġbá»ĭ":564,"ĠÄĳá»ĵng":565,"ĠS":566,"Ã¹ng":567,"iá»ĩt":568,"á»Ļi":569,"Äĥn":570,"on":571,"iá»ģn":572,"Ġtháº¿":573,"há»ĭ":574,"Ġráº±ng":575,"ĠPh":576,"ĠTr":577,"Ġdá»":578,"Ãªu":579,"áº¿u":580,"¯a":581,"Ġtá»ķ":582,"ĠÄĳiá»ģu":583,"Ã²n":584,"Ġy":585,"áº·c":586,"ĠÄĳá»ĳi":587,"ĠngÃły":588,"ĠÄĳáº¡i":589,"ĠI":590,"ĠtoÃłn":591,"em":592,"ph":593,"ĠcÆ¡":594,"áº¯c":595,"ĠtÃ¡c":596,"áº«":597,"Æ°á»Ł":598,"áº£o":599,"hÃŃ":600,"Ġthá»Ŀi":601,"Ġká»":602,"£p":603,"áº¡n":604,"á»±c":605,"áº·t":606,"Æ°á»Łng":607,"ĠhÃłnh":608,"Ġtheo":609,"Ġtiáº¿":610,"ĠG":611,"Ġtá»±":612,"Æ°á»£ng":613,"Ġthu":614,"ĠÄĲá»":615,"áº¥u":616,"£i":617,"áº¡t":618,"iá»ĩm":619,"Ġtranh":620,"Ġchá»©c":621,"Ġkhi":622,"ĠÄĲáº£ng":623,"ĠX":624,"Æ°a":625,"Ã©":626,"ĠnÃ³i":627,"Ġhá»£p":628,"ĠÄĳáº§u":629,"³ng":630,"Ġdá»±":631,"ĠbÃ¡o":632,"ĠnÃło":633,"¢n":634,"Ã¡p":635,"uá»":636,"iá»ĩu":637,"ĠÄĳáº£ng":638,"ĠNh":639,"ĠtrÃªn":640,"Ġchiáº¿n":641,"áº«n":642,"Ġnghiá»ĩp":643,"ĠÃ´ng":644,"Ġ5":645,"Ġquá»ĳc":646,"ĠphÃ¡t":647,"Ġnghá»ĭ":648,"á»ı":649,"Ġ4":650,"Ġquyáº¿t":651,"ĠtáºŃp":652,"ĠcÃ²n":653,"ĠÃ½":654,"ĠhÆ¡n":655,"¬nh":656,"Ġ19":657,"ri":658,"iá»ĥm":659,"ĠláºŃp":660,"Ġkinh":661,"Ġhá»įc":662,"Ġi":663,"Ġmáº¡ng":664,"Ġvá»¥":665,"ĠK":666,"iá»ĥn":667,"Ġmá»Ľi":668,"Ġanh":669,"ķi":670,"âĢ":671,"Ġlao":672,"Ŀn":673,"Ńi":674,"Ã¡t":675,"įi":676,"Ġbáº±ng":677,"cá»":678,"Ġcáº§n":679,"--------":680,"ĠhÃ¬nh":681,").":682,"Ġlá»£i":683,"ÄĲ":684,"áºŃy":685,"00":686,"âĢĵ":687,"Ġcá»ı":688,"ĠviÃªn":689,"ĠgiÃ¡":690,"ĠkhÃ¡c":691,"Æ°u":692,"ĠnÃ´ng":693,"ÃŃnh":694,"ĠâĢĵ":695,"Ġsau":696,"ĠquÃ¢n":697,"18":698,"ĠÄĳáº¡o":699,"ĠlÃ½":700,"á»ĳi":701,"Ġcháº¿":702,"Ġ6":703,"Ġnhiá»ģu":704,"gh":705,"ĠD":706,"ĠhÃłng":707,"Ġquyá»ģn":708,"ĠtrÆ°á»Ľc":709,"įng":710,"ĠÄĳi":711,"Ġgiai":712,"©ng":713,"Ġlá»Ľ":714,"Ã¡nh":715,"áº¯t":716,"ĠvÃ¬":717,"ĠÄĳÃ¢y":718,"Ġthá»©":719,"ĠNga":720,"ĠsÃ¡ch":721,"Ġtiáº¿n":722,"ĥn":723,"cá»§a":724,"ĠÄĳÃº":725,"ĠÄĲá»©c":726,"er":727,"Ġkáº¿t":728,"ghen":729,"uá»ĳn":730,"Ġhai":731,"ĠcÃ¡i":732,"ĠmÃ¬nh":733,"ĠÄĳá»ĭa":734,"Ġtáº¥t":735,"ĠÄĳáº¥u":736,"Ġthá»©c":737,"Ġbiá»ĥu":738,"Ġlá»±c":739,"),":740,"Ġgia":741,"Ġtiá»ģn":742,"áº»":743,"ıi":744,"Ġváº¥n":745,"ĠlÆ°á»£ng":746,"Ġsá»Ń":747,"ĠthÆ°":748,"á»ĳt":749,"Ġgá»Ńi":750,"hÃŃnh":751,"ĠváºŃy":752,"Ġtriá»ĥn":753,"ĠÆ°Æ¡ng":754,"áº©m":755,"Ãµn":756,"ĠnháºŃn":757,"ĠhoÃłn":758,"Ġ7":759,"ĠQ":760,"įn":761,"Ġtrung":762,"Ġpháº§n":763,"Æ°ng":764,"nhá»¯ng":765,"Ã¢u":766,"Ġkho":767,"ĠÄĳoÃłn":768,"uyá»ĩ":769,"ĠluáºŃn":770,"ĠphÆ°Æ¡ng":771,"ia":772,"Ġcá»©":773,"Ġláº§n":774,"á»ĭch":775,"ĠtÃ¬nh":776,"iÃªu":777,"uá»ĳc":778,"Ġlá»Ľn":779,"ĠtrÆ°á»Ŀng":780,"Ġcháº¥t":781,"ĠTh":782,"ĠAnh":783,"ĠvÄĥn":784,"Ġban":785,"chá»":786,"ĠlÃªn":787,"Ġsá»©c":788,"Ġá»§":789,"Ġlá»Ŀi":790,"thá»":791,"Ġtáº¡i":792,"ĠnhÆ°ng":793,"................":794,"Ġbá»ı":795,"ĠtÃŃnh":796,"ĠcÃº":797,"ĠBan":798,"Ġnay":799,"...":800,"Ġmáº·t":801,"Ġchá»ĳng":802,"Ġbá»ĳ":803,"Ġcon":804,"Ġo":805,"á»¹":806,"Ġbáº£o":807,"Ġnhiá»ĩm":808,"³a":809,"ua":810,"Ġdá»¥ng":811,"Ġhoáº¡t":812,"ĠR":813,"ĠÄĳiá»ĥm":814,"ĵi":815,"Ã¢m":816,"Ġráº¥t":817,"Ĥng":818,"Ġtiáº¿ng":819,"á»¥":820,"Ġ8":821,"áº¡ch":822,"ĠtÄĥng":823,"Ġsá»Ł":824,"Ġdá»±ng":825,"li":826,"ÃŃt":827,"áº£m":828,"Ġviáº¿t":829,"ĠphÃ¡p":830,"Ãºc":831,"Ġqua":832,"Ġa":833,"Ġná»¯a":834,"xt":835,"ĠPhÃ¡p":836,"ĠÄĳá»Ļi":837,"áº¯ng":838,"ĠlÃ£":839,"kh":840,"Ġpháº©m":841,"Ġtháº¥y":842,"Ġthá»ĳng":843,"ĠphÃ¡i":844,"áº¯n":845,"Ġrá»":846,"Ġu":847,"Ġgiáº£i":848,"ĠtrÃ¬nh":849,"ĠÄĳáº¥t":850,"oáº¡i":851,"Ġtiáº¿p":852,"Ġphá»§":853,"áº³ng":854,"iÃª":855,"Ġgiá»Ŀ":856,"Ġgiá»Ľi":857,"Ġcao":858,"Ġtá»Ļc":859,"«a":860,"Ġtrá»įng":861,"ĠMÃ¡c":862,"ĠNam":863,"Ġbiáº¿t":864,"ĠHá»Ļi":865,"ĵn":866,"ĠthÃ´ng":867,"uyá»ĥn":868,"Ġ.":869,"Ġphong":870,"ĠgÃ¬":871,"ĠÃ":872,"Ġhá»ĩ":873,"á»Ŀ":874,"Ġmá»įi":875,"ĠÄĳá»ķi":876,"Ġkiá»ĩn":877,"Æ°á»Ľng":878,"oÃłi":879,"vÃł":880,"ĠliÃªn":881,"Ġthá»ĭ":882,"ĠchÆ°a":883,"¡nh":884,"ĠÄĳá»ģu":885,"ĠvÃ´":886,"Tr":887,"Ã©t":888,"ĠluáºŃt":889,"Ġbiáº¿n":890,"Ġnáº¿u":891,"gi":892,"Ġháº¿t":893,"ĠTrung":894,"Ġthuá»Ļc":895,"Ġgiá»¯a":896,"Ġcá»ĳ":897,"Ġtáº¡o":898,"Ã©c":899,"Ġtá»Ŀ":900,"ĠhÃ³a":901,"Ġhoáº·c":902,"ĠváºŃt":903,"Ġnhau":904,"Ġmáº¡nh":905,"Æ°á»Ľi":906,"ĠnÃªn":907,"Ĺi":908,"ĠcÃ¹ng":909,"ĠTá»":910,"Æ¡i":911,"Ng":912,"Ġká»³":913,"ĠcÃ¡n":914,"ĠxÃ¢y":915,"Ġthá»§":916,"ħn":917,"ĠlÃ£nh":918,"Ġlá»ĩ":919,"há»¯ng":920,"II":921,"Ġtrá»Ł":922,"ĠbÃłi":923,"Ġkhá»¥ng":924,"ĠrÃµ":925,"Ġbá»įn":926,"hÃºng":927,"ĠCh":928,"ĠchÃº":929,"ĠnÄĥng":930,"ĠÄĳang":931,"ta":932,"----------------":933,"Ãłn":934,"Ãºt":935,"Ġhay":936,"«ng":937,"trong":938,"ĠtiÃªu":939,"ĠtrÃło":940,"ĠtÆ°á»Łng":941,"Ġcá»Ļng":942,"Ã³c":943,"Ġtá»ĳt":944,"ĠbÃ¬nh":945,"ĠnÃº":946,"es":947,"Ńa":948,"Ġbiá»ĩt":949,"ĠgiÃ¡o":950,"ra":951,"Ġtá»Ľi":952,"ĠnhiÃªn":953,"Ġchi":954,"ĠTrong":955,"ĠChÃŃnh":956,"Ġvá»ĭ":957,"Ġgian":958,"Ġváº«n":959,"19":960,"áº¡ng":961,"Ġyáº¿u":962,"uÃ¢n":963,"Ġtham":964,"uyá»ĩn":965,"Ġbáº¥t":966,"Ľnh":967,"Ġliá»ĩu":968,"Ä©nh":969,"Ġthiáº¿t":970,"Ġminh":971,"xÆ¡":972,"ti":973,"uá»·":974,"iá»ħn":975,"áº¡p":976,"Ġchung":977,"Ġchuyá»ĥn":978,"áº£y":979,"ĠthÆ°á»Ŀng":980,"iáº¿u":981,"Ġ184":982,"ĠÄĳo":983,"Ġquáº£":984,"ĠÄĳÆ°á»Ŀng":985,"ĠQuá»ĳc":986,"ngh":987,"ĠÄĳáº·c":988,"áº¡m":989,"ĠBa":990,"ĠlÆ°u":991,"Ġcá»ıc":992,"á»Ľ":993,"Ġquáº§n":994,"ĠquÃ¡":995,"ĠtÃłi":996,"ĠMá»¹":997,"Ġsinh":998,"Łi":999,"ĠdÆ°á»Ľi":1000,"īnh":1001,"khÃ´ng":1002,"áº©n":1003,"Ġ,":1004,"lÃł":1005,"áº§m":1006,"ĠnguyÃªn":1007,"ĠÄĳÃºng":1008,"Ġsá»ĳng":1009,"ĠhoÃł":1010,"Ġkiáº¿n":1011,"ĠÄĤng":1012,"Ġmuá»ĳn":1013,"ĠViá»ĩt":1014,"ĠÄĳÆ°a":1015,"ĠthÃ¢n":1016,"Ġcáº§u":1017,"Ġtá»©c":1018,"ĠphÃ¢n":1019,"Ġcáº£i":1020,"Ġá»§y":1021,"Ġtin":1022,"Ġpháº£n":1023,"ĠPhá»":1024,"ĠNhÆ°ng":1025,"iá»Ŀn":1026,"á»Ľi":1027,"á»ĳp":1028,"áº·ng":1029,"Ġbáº¯t":1030,"má»Ļt":1031,"¯u":1032,"tÆ¡":1033,"ĠGi":1034,"Äĳá»":1035,"Ġtháº§n":1036,"Ġuá»·":1037,"Ġphá»¥c":1038,"ĠngoÃłi":1039,"Ġtay":1040,"ngÆ°á»Ŀi":1041,"ei":1042,"uyá»ģn":1043,"ĠdÃ¹ng":1044,"uá»Ļng":1045,"ĠthÃŃ":1046,"ĠtháºŃt":1047,"ĠkhÃ":1048,"ªm":1049,"á»Ł":1050,"Ġ9":1051,"Ġ185":1052,"Ġba":1053,"17":1054,"ĠÄĳáº¿":1055,"ĠtÃŃch":1056,"ĠBá»Ļ":1057,"ĠChá»":1058,"Ġ186":1059,"iáº¿m":1060,"Ġbao":1061,"Ġcá»©u":1062,"ĠcÃłng":1063,"ĠyÃªu":1064,"áº±m":1065,"Ġcá»¥ng":1066,"Ġmiá»ģn":1067,"ıng":1068,"oi":1069,"ni":1070,"ĠÄĳÃ¡nh":1071,"cÃ¡c":1072,"nin":1073,"Ã²ng":1074,"ĠtuyÃªn":1075,"ÄĳÆ°á»£c":1076,"ĠThá»":1077,"ĠhoÃ¡":1078,"ĠváºŃn":1079,"Ġkáº¿":1080,"Ġngay":1081,"ĠsÄ©":1082,"ĠcÅ©":1083,"Ġhá»¯u":1084,"áº¡c":1085,"Ġtháº¯ng":1086,"ĠlÄ©nh":1087,"Ã¡y":1088,"Ġdáº«n":1089,"Ġcháº¥p":1090,"Ġkhá»ıi":1091,"tá»":1092,"įc":1093,"Ġná»Ļi":1094,"§ng":1095,"iÃªng":1096,"ĠTá»ķ":1097,"Ġhoáº¡ch":1098,"Ġtháº£o":1099,"Ġto":1100,"Ġtá»ķng":1101,"ĠKh":1102,"ĠthÃ´":1103,"Ã¡m":1104,"uá»ĳi":1105,"ĠNhá»¯ng":1106,"ĠÄĳá»§":1107,"Ãºp":1108,"Ã¡u":1109,"ĠngÃłnh":1110,"Ġgá»įi":1111,"Ġso":1112,"Ġá»ı":1113,"ĠhÆ°á»Ľng":1114,"Ph":1115,"Ġgiáº£":1116,"ĠthÃŃch":1117,"Ġthay":1118,"Ġchá»Ĺ":1119,"cÃ´ng":1120,"Ġchu":1121,"Ġruá»Ļng":1122,"Ġtráº£":1123,"Ġkáº»":1124,"ĠCÃ¡c":1125,"Ġquáº£n":1126,"Nh":1127,"Ġháº¡n":1128,"Ġbá»©c":1129,"ĠthÃªm":1130,"uyáº¿t":1131,"áº©y":1132,"áº¹":1133,"ĠHá»":1134,"Ġngá»":1135,"ĠnÆ¡i":1136,"Th":1137,"ĠlÃºc":1138,"ĠÄĳá»Ļc":1139,"Ġloáº¡i":1140,"Ġláº¥y":1141,"Ġvá»ĩ":1142,"ĠÄĳÆ¡n":1143,"Ġtá»īnh":1144,"ĠÄĲáº¡i":1145,"Ġnghá»":1146,"ĠÄĳáº£m":1147,"Ġ187":1148,"ĠÃŃt":1149,"Ġcá»Ń":1150,"Ġmá»©c":1151,"Ġrá»Ļng":1152,"Ġxem":1153,"cÆ¡":1154,"á»ıc":1155,"Ġ10":1156,"Ġchá»©ng":1157,"ĠvÃ¹ng":1158,"Ġtá»«ng":1159,"Ġtinh":1160,"Ġtá»¥":1161,"Ġná»ģn":1162,"ĠLÃª":1163,"Ġnhu":1164,"Ġtá»ı":1165,"Ġhiá»ĩu":1166,"ĠtÃªn":1167,"Ġmá»Ĺi":1168,"Ġphá»¥":1169,"Ġcá»¥":1170,"ar":1171,"Ġká»·":1172,"Ġbinh":1173,"ĠthÆ°Æ¡ng":1174,"Ãµy":1175,"rÆ¡":1176,"Ġá»¥ng":1177,"ĠÄĳoáº¡n":1178,"ĠmÃ¡y":1179,"²ng":1180,"Ġcá»±c":1181,"Ġáº£":1182,"Ġtá»¥c":1183,"ĠNhÃł":1184,"ĠxÃ©t":1185,"ĠtÃ¢m":1186,"Ġe":1187,"Ġcuá»ĳn":1188,"ĠcÃ¡o":1189,"Ã£i":1190,"Ġkhu":1191,"µn":1192,"sch":1193,"Ġxá»":1194,"or":1195,"ĠpháºŃn":1196,"Ġsao":1197,"quy":1198,"uyá»ĩt":1199,"ĠtrÃŃ":1200,"Ġtrá»±c":1201,"ĠÄĳÄĥng":1202,"Ġ17":1203,"Ġkháº£":1204,"Ġgiá»¯":1205,"Ġgiao":1206,"ĠÄĲÃ´n":1207,"Ġviá»ĩn":1208,"Ġvá»±c":1209,"Ġdá»ĭch":1210,"Ġhiá»ĩp":1211,"Ġhiá»ĥu":1212,"ĠÄĳá»ĭch":1213,"NG":1214,"ĠtrÃ¡ch":1215,"Ġtiá»ĥu":1216,"Ġmá»¥c":1217,"Ġlá»ĭch":1218,"Ġduy":1219,"áº¯p":1220,"ĠtrÆ°á»Łng":1221,"ĠMÆ°á»Ŀi":1222,"áº§y":1223,"ĠLiÃªn":1224,"ĠPa":1225,"Ġthá»¡":1226,"Trong":1227,"Ġtruyá»ģn":1228,"Ġcáº£nh":1229,"Ġkhai":1230,"ĠÄĳÃ¡ng":1231,"la":1232,"na":1233,"ĠthÃ¡i":1234,"ĠcÆ°á»Ŀng":1235,"ĠnháºŃp":1236,"áº©u":1237,"áº¡nh":1238,"Ġin":1239,"Ġnhá»ı":1240,"eit":1241,"Ġtu":1242,"Ġkhoa":1243,"Ġdiá»ħn":1244,"Ġtra":1245,"ĠgiÃºp":1246,"iá»Ŀ":1247,"cho":1248,"Ġmá»Ł":1249,"Ġdiá»ĩn":1250,"el":1251,"MÃ¡c":1252,"................................":1253,"Ġcuá»ĳi":1254,"Ġgiá»ı":1255,"áº¯m":1256,"Ġphá»ı":1257,"ĠhÃ²":1258,"ĠngÃłi":1259,"un":1260,"ho":1261,"Ġhuy":1262,"ĠPhá»ķ":1263,"Ġchuáº©n":1264,"áºŃu":1265,"Ã¨":1266,"ĠbÆ°á»Ľc":1267,"Ġ20":1268,"Ġcoi":1269,"vÃŃch":1270,"Ġrá»ĵi":1271,"ĠthuáºŃt":1272,"cÃ³":1273,"Ġ12":1274,"ĠkhÃ³":1275,"Ġchá»ĭ":1276,"ĠbiÃªn":1277,"000":1278,"Ġdoanh":1279,"ĠnÃºi":1280,"áºŃm":1281,"ĠTÆ°":1282,"10":1283,"Ġan":1284,"ĠtráºŃn":1285,"lÆ¡":1286,"--------------------------------":1287,"Ġvi":1288,"Ġdá»¥c":1289,"Ġ15":1290,"Ġcháº³ng":1291,"Ġcá»ıch":1292,"ĠnhÃµn":1293,"ĠÄĳáº©y":1294,"báº£n":1295,"Ġem":1296,"ĩnh":1297,"ĠÄĳáº·t":1298,"Ġlo":1299,"á»Ńi":1300,"Ġbáº¡n":1301,"ĠbÃ¡n":1302,"ĠII":1303,"Ġ188":1304,"ĠE":1305,"ĠÃ¡n":1306,"Ġbiá»ĩn":1307,"Ġnháº±m":1308,"Ġchiáº¿m":1309,"ĠphÃ²ng":1310,"ĠtiÃªn":1311,"vá»Ľi":1312,"ĠhÃ²a":1313,"Ġphá»ĳ":1314,"Ġhá»įp":1315,"ĠlÆ°á»£c":1316,"Ġkiá»ĥm":1317,"ĠluÃ´n":1318,"ĠlÆ°Æ¡ng":1319,"Ġchá»Ľnh":1320,"ĠkÃ©":1321,"ĠÄĳá»Ŀi":1322,"Ġtriá»ĩu":1323,"chÃºng":1324,"áº¿ch":1325,"Äĳá»Ļng":1326,"Ġvá»«a":1327,"Ã¢ng":1328,"Ã²i":1329,"ki":1330,"ĠdÆ°":1331,"Ġbáº§u":1332,"chÃŃnh":1333,"chá»§":1334,"á»³":1335,"Ã³m":1336,"Ġtá»ĵn":1337,"ĠNáº¿u":1338,"nhÃ¢n":1339,"In":1340,"ĠÃ¡p":1341,"12":1342,"Ġsang":1343,"Ġcá»ķ":1344,"Ġbuá»Ļc":1345,"ĠtÆ°Æ¡ng":1346,"ĠxÃ¡c":1347,"ĠLa":1348,"Ġgáº§n":1349,"Ġtráº¡ng":1350,"Ġá»©ng":1351,"ĠnghiÃªn":1352,"ÄĤng":1353,"Ġká»¹":1354,"st":1355,"13":1356,"Ã¬m":1357,"nÆ¡":1358,"Ġpháº¡m":1359,"ĠÃł":1360,"Ġtrang":1361,"ĠU":1362,"uá»ĳng":1363,"ĠkhÃŃ":1364,"Ġvá»¯ng":1365,"Ġmáº¥t":1366,"Ġcháº¯c":1367,"dÃ¢n":1368,"15":1369,"thÃ":1370,"Ġkháº©u":1371,"Ġthi":1372,"hi":1373,"nghÄ©a":1374,"pháº£i":1375,"Ġtá»ĳ":1376,"ĠsÃ¡t":1377,"¢u":1378,"ĵm":1379,"ºc":1380,"Ġcáº£m":1381,"ĠbÃŃ":1382,"Ġgiáº£m":1383,"Ġ189":1384,"uá»ĵn":1385,"Ġlá»ĳi":1386,"ÄĳÃ£":1387,"ĠhÃ£":1388,"iÃªm":1389,"ĠquÃµn":1390,"va":1391,"ĠsÃ¡ng":1392,"ÄĳÃ³":1393,"ĠdÃ¹":1394,"Ġsai":1395,"ĠtÆ°á»£ng":1396,"Ġ16":1397,"Ġá»¥":1398,"16":1399,"ĠkÃ½":1400,"Ġtá»Ń":1401,"eu":1402,"ĠBáº¯c":1403,"Ġthá»«a":1404,"ĠSá»±":1405,"ĠÄĳá»©ng":1406,"ĠLuÃ¢n":1407,"Ġtá»ĭ":1408,"Ġchá»³ng":1409,"ĠÄĳem":1410,"áº¥m":1411,"Ġtuyá»ĩt":1412,"ĠNÄĥm":1413,"xtÆ¡":1414,"14":1415,"Ġhá»ıi":1416,"Ġmua":1417,"há»Ļ":1418,"ĠbÃªn":1419,"ĠCÃ´ng":1420,"Ġhiáº¿n":1421,"ĠhoÃłng":1422,"nhÆ°":1423,"Ġláº½":1424,"lin":1425,"ĳn":1426,"ĠgÃ¢y":1427,"Zeit":1428,"ĠdÃłi":1429,"ÄĲá»":1430,"Ġtá»ĭch":1431,"ĠÃŃch":1432,"thÃłnh":1433,"Ġná»ķi":1434,"ĠVá»ģ":1435,"Ġthanh":1436,"ĠÄĳÃ²i":1437,"Ġtá»¥i":1438,"Ġá»§ng":1439,"Ġchá»ĭu":1440,"ĠTá»ķng":1441,"Ġbá»ķ":1442,"gÆ¡":1443,".-":1444,"ĠÄĳáº¡t":1445,"ĠchuyÃªn":1446,"ĠHai":1447,"Ġkhá»ı":1448,"ĠvÅ©":1449,"ĠhÆ°á»Łng":1450,"Ġtho":1451,"Ġá»Ľ":1452,"Ġthá»ıng":1453,"Ġtá»·":1454,"Ġthiáº¿u":1455,"Ġngoáº¡i":1456,"Ġai":1457,"le":1458,"nÆ°á»Ľc":1459,"Ġtáº¯c":1460,"Ãģ":1461,"ĠriÃªng":1462,"lá»":1463,"phá»":1464,"lÃª":1465,"ĠÄĳáº§y":1466,"ĠphÃª":1467,"Æ°á»¡":1468,"sáº£n":1469,"Ġdung":1470,"Ġ14":1471,"ĠcÃ¡":1472,"Ġtrao":1473,"oÃ³c":1474,"©t":1475,"man":1476,"viáº¿t":1477,"ĠChÃŃ":1478,"20":1479,"ĠphÃ³ng":1480,"ĠxÃ³":1481,"ĠmÆ°u":1482,"ĠÄĳÃ¬nh":1483,"Ġbá»Łi":1484,"ĠÄĥn":1485,"ma":1486,"ĠnhuáºŃn":1487,"ĠVÃ¬":1488,"Ġká»ĥ":1489,"ĠtÃ¬m":1490,"len":1491,"Ġ30":1492,"Ġvá»įng":1493,"ĠCá»Ļng":1494,"Ġgá»ĵm":1495,"hÃ¢n":1496,"ĠtÆ°á»Ľc":1497,"sÃª":1498,"©p":1499,"Ġkhá»Łi":1500,"Ġthuyáº¿t":1501,"Nhá»¯ng":1502,"ĠÄĲá»ĵng":1503,"khá»":1504,"Ġkia":1505,"ĠnÃ¢ng":1506,"uá»ķi":1507,"ÄĳÆ¡":1508,"ĠNgÆ°á»Ŀi":1509,"Ġtháº·ng":1510,"30":1511,"ĠcÄĥn":1512,"Há»":1513,"ĠChÃºng":1514,"Ġvá»¡":1515,"Ã³i":1516,"Ãłu":1517,"ĠÃĶ":1518,"Ġtáº¡p":1519,"Ãºng":1520,"á»ĭp":1521,"sá»±":1522,"lu":1523,"Ġniá»ĩm":1524,"Ġchá»©":1525,"Ġcá»ıi":1526,"á»·":1527,"Zeitung":1528,"ĠlÃ¢u":1529,"ĠchÆ°Æ¡ng":1530,"±ng":1531,"Ġsuáº¥t":1532,"há»Ļi":1533,"ĠkhÄĥn":1534,"iáº¿p":1535,"ĠhÃ£y":1536,"Ġdanh":1537,"ĠphÃŃ":1538,"ĠrÃłng":1539,"ĠtrÆ°Æ¡ng":1540,"ĠToÃłn":1541,"Ġchia":1542,"viá»ĩc":1543,"Ġáº£nh":1544,"Äĳá»ĭ":1545,"Äĳi":1546,"ga":1547,"cÃ¡ch":1548,"Ġnhanh":1549,"ĠlÃ²ng":1550,"Ã³p":1551,"ĠquÃ½":1552,"ÃŃn":1553,"ĠxÆ°á»Łng":1554,"ĠÄĲÃ´ng":1555,"Ġtuáº§n":1556,"ĠBÃŃ":1557,"Ġ25":1558,"Ġphá»ĳi":1559,"ĠCá»":1560,"Ġá»Ļ":1561,"ĠrÃºt":1562,"Ġ1848":1563,"ĠtrÃ²":1564,"Ġ[":1565,"xem":1566,"Ġmang":1567,"Ġ13":1568,"ĠTÃ´i":1569,"Ġá»Ŀ":1570,"vá»ģ":1571,"ĠcÆ°Æ¡ng":1572,"Ã©p":1573,"ĠDo":1574,"Ġtáº¥n":1575,"ĠBá»":1576,"ĠLu":1577,"ur":1578,"Ġlá»ĩnh":1579,"im":1580,"Ġmá»¡nh":1581,"ĠcÅ©n":1582,"ĠthÃ´n":1583,"Ġtháº¥t":1584,"má»":1585,"ĠXÃ´":1586,"uyá»Ŀn":1587,"Ġ24":1588,"ĠÆ°á»Ľc":1589,"ĠÄĳá»¡":1590,"ĠphÃŃa":1591,"Ġláº¡c":1592,"Ġbáº¡i":1593,"ĠthÃ´i":1594,"vÆ¡":1595,"Ġtuy":1596,"Ġ22":1597,"ĠÃ¡o":1598,"Ġgiá»ĳng":1599,"te":1600,"Ġxin":1601,"Ġtrá»«":1602,"ĠÄĳa":1603,"áº·p":1604,"ĠniÃªn":1605,"Ġtiá»ĩn":1606,"Ġ28":1607,"ĠÃĤ":1608,"Ġxa":1609,"Ġ27":1610,"Ġ190":1611,"Ġá»ĩ":1612,"Ġnghiá»ĩm":1613,"Ġá»§a":1614,"ĠÄĳÃŃch":1615,"thá»ĥ":1616,"ĠÄĲiá»ģu":1617,"Ġkhá»ĳi":1618,"ĠthÃ¹":1619,"ĠÄĳÃ³ng":1620,"xi":1621,"Vá»ģ":1622,"áº¹p":1623,"ĠchÃ¢u":1624,"ĠdÃµn":1625,"11":1626,"Ġsáº¯c":1627,"Ġcá»§ng":1628,"ru":1629,"Ġkhá»ıc":1630,"Ġtá»Ļi":1631,"xuáº¥t":1632,"ÄĲáº£ng":1633,"Ġthuáº¿":1634,"ĠÄĳá»įc":1635,"Æ°á»¡ng":1636,"Ġná»¯":1637,"om":1638,"áº¡y":1639,"Ġphá»ķ":1640,"ĠTÃ¢y":1641,"ĠMá»Ļt":1642,"ĠcÃ¢u":1643,"sá»ĳ":1644,"NhÆ°ng":1645,"Ġtá»Ľnh":1646,"ĠnÃªu":1647,"ĠmáºŃt":1648,"Ġ23":1649,"Ġxuá»ĳng":1650,"Ġlá»Ľp":1651,"NH":1652,"tion":1653,"sche":1654,"cÅ©ng":1655,"Ġvai":1656,"Ġcháº·t":1657,"Æ¯":1658,"giá»":1659,"xki":1660,"ĠkÃŃch":1661,"ĠsÃ¢u":1662,"Ġsá»Ńa":1663,"quan":1664,"CÃ¡c":1665,"Ġcung":1666,"Ġtrá»Ŀn":1667,"ĠÃĤu":1668,"25":1669,"CÃ´ng":1670,"tÆ°":1671,"ĠnghÄ©":1672,"Ġnhá»Ŀ":1673,"ĠnhÃ³m":1674,"ĠKá»³":1675,"ĠkiÃªn":1676,".,":1677,"Ġxáº£y":1678,"Ġvua":1679,"ran":1680,"ĠtÃ¡n":1681,"mÃł":1682,"lÃłm":1683,"Ġhy":1684,"ĠF":1685,"al":1686,"iáº¿c":1687,"Ġdá»¥":1688,"Ġ26":1689,"ie":1690,"Ġá»ĳ":1691,"ĠhÃ´":1692,"ĠAi":1693,"Ġáº¿":1694,"Tá»":1695,"Ġ29":1696,"ĠZeitung":1697,"ĠChá»§":1698,"Ġbá»ıo":1699,"Æ°á»£t":1700,"ĠgiÃłnh":1701,"Ġnáº¯m":1702,"Ġmáº¯t":1703,"Ġnguá»ĵn":1704,"ĠnghÃ":1705,"hiá»ĩn":1706,"Ġláº§m":1707,"ĠVÃł":1708,"Ġphiáº¿u":1709,"Ġháº¡i":1710,"Ġtiáº¿t":1711,"Ġtá»ĩ":1712,"Ġ50":1713,"Ch":1714,"nháº¥t":1715,"23":1716,"Ġchá»īnh":1717,"Ġtá»ĳi":1718,"TÃ´i":1719,"24":1720,"nghiá»ĩp":1721,"Ġdá»±a":1722,"ĠAn":1723,"ĠÄĳiá»ĩn":1724,"Ġháº¡":1725,"ĠbÃłn":1726,"Ġchuyá»ĩn":1727,"Ġliá»ĩt":1728,"ĠLan":1729,"Ġmáº·c":1730,"28":1731,"ĠtÃŃn":1732,"Ġkhá»ķ":1733,"ĠÄĳÃµy":1734,"ĠgÃ³p":1735,"Ġkhá»§ng":1736,"27":1737,"Ġmáº¥y":1738,"Ġnghá»ĩ":1739,"ss":1740,"Ġkhoáº£n":1741,"di":1742,"ĠphÃ¡n":1743,"ĠbÃły":1744,"ĠÃº":1745,"Ġhá»¡nh":1746,"nÄĥm":1747,"ĠháºŃu":1748,"xen":1749,"³c":1750,"Ġsung":1751,"ĠngÅ©":1752,"á»¥ng":1753,"21":1754,"ĠkÃ©o":1755,"Ġtriáº¿t":1756,"ĠtháºŃm":1757,"Ġof":1758,"do":1759,"ĠBÃ©c":1760,"ĠÄĳá»ĵ":1761,"29":1762,"Ľch":1763,"ĠMa":1764,"ĠNhÆ°":1765,"ĠthuáºŃn":1766,"ĠSau":1767,"Ġxá»Ń":1768,"Ġvu":1769,"Chá»":1770,"ĠNa":1771,"ĠCÃ³":1772,"26":1773,"vi":1774,"ĠtÆ°á»Ľng":1775,"ĠngÃ´n":1776,"Ġtrá»¯":1777,"thá»±c":1778,"50":1779,"ĠChá»ī":1780,"ĠIII":1781,"Äĳáº¿n":1782,"ĠnghiÃªm":1783,"Ġnhá»":1784,"Ġtáº£":1785,"ĠthÃºc":1786,"ngÃły":1787,"NguyÃªn":1788,"ĠkhÃ¡ng":1789,"Äĳá»ĵng":1790,"Ġlá»Ļ":1791,"Ġ199":1792,"ĠbÃło":1793,"Ġkhoáº£ng":1794,"ĠtrÃ¡i":1795,"á»±a":1796,"ĠÄĳÃ´ng":1797,"ĠbÃł":1798,"mÃ¡c":1799,"thÃ¡ng":1800,"ĠViá»ĩc":1801,"Ġthá»£":1802,"ĠchÃ¢n":1803,"Ġthiá»ĩn":1804,"Ġá»ķ":1805,"rÃ´":1806,"nÃły":1807,"Ġnghá»ģ":1808,"áº§ng":1809,"ein":1810,"Trung":1811,"á»¥n":1812,"35":1813,"Ġmá»ĳi":1814,"ĠNghá»ĭ":1815,"ıp":1816,"nÃ´":1817,"Ġnáº·ng":1818,"trá»":1819,"ĠmÃ´":1820,"hÃª":1821,"III":1822,"Ġvá»ĳn":1823,"ĠxuyÃªn":1824,"cuá»Ļc":1825,"ĠtrÃ¬":1826,"ĠBáº£y":1827,"Ġhá»ĵi":1828,"re":1829,"49":1830,"39":1831,"dÆ¡":1832,"Äĳá»ĭnh":1833,"vÃło":1834,"Ġdáº§n":1835,"ca":1836,"ĠtÃ´":1837,"Ġ000":1838,"Ġthá»ı":1839,"tranh":1840,"ĠÆ¡":1841,"Ġ0":1842,"ĠmÃ¹":1843,"oa":1844,"Ġchá»¯":1845,"¥n":1846,"ĠbÃ¡c":1847,"Ġcáº¡nh":1848,"ĠcÆ°":1849,"se":1850,"Äĳiá»ģu":1851,"48":1852,"uÃ´n":1853,"linh":1854,"ĠnÃ´":1855,"ráº±ng":1856,"láº¡i":1857,"lan":1858,"ĠphÃ©p":1859,"Ġcáº¥u":1860,"thÃ¬":1861,"chá»ī":1862,"ĠÄĳáº£o":1863,"Ãłm":1864,"ĠÃĬ":1865,"ĠÄĳáº¥y":1866,"Ã£n":1867,"hÃłnh":1868,"40":1869,"ne":1870,"Ġghi":1871,"hÃº":1872,"----------------------------------------------------------------":1873,"ĠÄĲÃ³":1874,"Ġgáº¯ng":1875,"Ġgá»¡":1876,"Ġdu":1877,"Ġcháº½":1878,"Ġsá»ı":1879,"36":1880,"ĠngÃ¢n":1881,"ts":1882,"Ġáº¥":1883,"tu":1884,"ĠCháº¡p":1885,"quyáº¿t":1886,"rÃŃch":1887,"Ġtráº»":1888,"Ġmáº¿n":1889,"ĠHÃł":1890,"Ġq":1891,"Ġcháº¿t":1892,"Ġ40":1893,"ĠQu":1894,"Äĳá»ĥ":1895,"37":1896,"thu":1897,"uá»ĳt":1898,"45":1899,"46":1900,"Ġthá»¥ng":1901,"Ġkháº¯c":1902,"Ġ11":1903,"Ġláº«n":1904,"ĠÄĳÃło":1905,"ĠÄĳá»ķ":1906,"186":1907,"cáº£":1908,"áºµn":1909,"ĠkÃªu":1910,"Ġná»Ńa":1911,"ÃŃp":1912,"Ġ36":1913,"ĠNá»Ļi":1914,"Ġá»ģ":1915,"Ġkhuy":1916,"ĠbÃ£i":1917,"xcÆ¡":1918,"ĠsÆ°":1919,"ĠÄĲu":1920,"toÃłn":1921,"Ġvong":1922,"Äĳáº£ng":1923,"Ġá»ĭ":1924,"Ġbá»ĩnh":1925,"Ġhu":1926,"ĠTÃ¡m":1927,"ĠBr":1928,"bá»":1929,"Gá»Ńi":1930,"ĠÃ¢m":1931,"Ġtáº§ng":1932,"ĩt":1933,"ĠSÃ¡u":1934,"ĠPháº£i":1935,"Ġthe":1936,"Ġá»±":1937,"187":1938,"ĠtÃ´n":1939,"chiáº¿n":1940,"Ġdá»ħ":1941,"Ġdi":1942,"ĠxÃŃ":1943,"Ġsáº¯p":1944,"Ġhuyá»ĩn":1945,"nhÃł":1946,"ĠÄĳáº³ng":1947,"cáº¥p":1948,"ĠÆ°u":1949,"ĠThá»ķ":1950,"Ġháº§u":1951,"Ġxu":1952,"ChÃºng":1953,"22":1954,"ĠÄĳÃłn":1955,"Ġgáº·p":1956,"ĠHá»ĵ":1957,"áº«u":1958,"ĠtrÃ¡nh":1959,"Ġsuy":1960,"ĠtoÃ¡n":1961,"ĠChÃŃn":1962,"ĠDÆ°Æ¡ng":1963,"ĠKhÃ´ng":1964,"ĠmÃ¡c":1965,"ĠgiÃ¡c":1966,"ĠMáº·t":1967,"Ġnháº¯c":1968,"Ġtan":1969,"Ġchá»«ng":1970,"theo":1971,"Äĳá»ģ":1972,"sá»":1973,"máº¡ng":1974,"ĠNhÄ©":1975,"38":1976,"Ġáº¥n":1977,"ĠxÃ¢m":1978,"ĠbÃ³c":1979,"31":1980,"ol":1981,"ĠÄĳÃ¢u":1982,"Ġtháº¥p":1983,"Gi":1984,"ná»ĳp":1985,"Ġ39":1986,"Ġ37":1987,"Ġ35":1988,"phÆ°Æ¡ng":1989,"ĠÃ¡c":1990,"phÃ¡t":1991,"á»Ľc":1992,"quyá»ģn":1993,"ĠÄĲá»ĳi":1994,"47":1995,"ĠVÄĥn":1996,"Ġsáºµn":1997,"Ġsá»£":1998,"ĠÄĳá»ı":1999,"ĠvÆ°á»£t":2000,"tt":2001,"ĠÄĳá»©c":2002,"ĠTá»«":2003,"nd":2004,"áº¿p":2005,"phÆ¡":2006,"bá»Ļ":2007,"Ġká»ĭp":2008,"thá»Ŀi":2009,"sÆ¡":2010,"Ġ1849":2011,"ĠsÃ´ng":2012,"ĠvÄ©":2013,"ĠhÃº":2014,"ĠXem":2015,"chá»©c":2016,"Ġla":2017,"ĠCháº¥p":2018,"nhiá»ģu":2019,"ĠKhi":2020,"ĠÄĳÃ´i":2021,"ĠO":2022,"ĠGiÃªng":2023,"Ġtrá»£":2024,"Ġ60":2025,"Ġ)":2026,"Ġcá»¥c":2027,"Ġgáº¯n":2028,"ĠlÃŃnh":2029,"ĠMinh":2030,"Ġháº¯n":2031,"Thá»":2032,"ĠÄĳá»ĳ":2033,"ÃģC":2034,"Ban":2035,"Ġkiá»ĥu":2036,"iá»Ŀu":2037,"ĠCa":2038,"ĠtÃ¹":2039,"ĠkÃ©m":2040,"Ã¬n":2041,"Ľt":2042,"Ġ38":2043,"Ġgiáº£n":2044,"ĠkhÃ¡":2045,"Ġbang":2046,"ĠthuÃª":2047,"ĠPhá»ıp":2048,"Ġbá»ĵi":2049,"ĠPÃª":2050,"Ġf":2051,"Ġ*":2052,"nghá»ĭ":2053,"iá»ģm":2054,"Ġ100":2055,"¨o":2056,"33":2057,"kinh":2058,"Ġhi":2059,"ĠNha":2060,"ĠthÆ¡":2061,"Ġchá»¯a":2062,"ĠÃĶng":2063,"ná»":2064,"cá»ĳp":2065,"Ġphá»ıt":2066,"ĠtrÃŃch":2067,"trÃªn":2068,"ĠphÃ¹":2069,"BÃ¡o":2070,"59":2071,"ĠhÃ´m":2072,"Ġthuáº«n":2073,"58":2074,"Äĳá»ĳi":2075,"quá»ĳc":2076,"nÃ´ng":2077,"Ġbáº¡o":2078,"ĠvÃłi":2079,"Ãµu":2080,"Náº¿u":2081,"bÃ¡o":2082,"Ġá»¯":2083,"eue":2084,"Ãºa":2085,"á»Ŀi":2086,"ĠtÃłn":2087,"há»į":2088,"Ġnghi":2089,"Ġlá»Ļt":2090,"Ġnáº±m":2091,"ische":2092,"Ġdá»©t":2093,"ĠNgÃły":2094,"áº³":2095,"Ġmá»ı":2096,"báº±ng":2097,"Ġhoáº£ng":2098,"©a":2099,"ĠmÆ°á»Ŀi":2100,"nhÆ°ng":2101,"trá»ĭ":2102,"ĠW":2103,"tháº¿":2104,"xan":2105,"Ġnghe":2106,"LuÃ¢n":2107,"ĠcÃ¡nh":2108,"Ġváº¡ch":2109,"Ġxung":2110,"ĠBÃ´":2111,"34":2112,"gá»Ńi":2113,"Ġtáº¡m":2114,"Ġrá»Ŀi":2115,"Ġcáº§m":2116,"trÆ°á»Ľc":2117,"Ġngá»¯":2118,"ĠCH":2119,"ĠSÄ©":2120,"iáº¿ng":2121,"Äĳen":2122,"Ġ................................":2123,"Ġtuá»":2124,"Ġgiáº¥y":2125,"ĠvÃłng":2126,"Ġca":2127,"Ġund":2128,"¥y":2129,"ĠbÃ¢y":2130,"60":2131,"khÃ¡c":2132,"á»±ng":2133,"tÃ´i":2134,");":2135,"trÆ°á»Ŀng":2136,"57":2137,"¢m":2138,"Ġlá»Ŀn":2139,"ben":2140,"Ġbiá»ĥn":2141,"ĠMÃ¡t":2142,"Ġnguy":2143,"Ġ21":2144,"xÃ£":2145,"Ġhá»¥":2146,"ĠMá»":2147,"Ġkháº³ng":2148,"cÃ´":2149,"ĠJ":2150,"ĠchÃ³ng":2151,"quÃ¢n":2152,"ĠKhu":2153,"Ġnguyá»ĩn":2154,"há»£p":2155,"Ġtri":2156,"ĠkhÃ´":2157,"Ġtriá»ĩt":2158,"pháº§n":2159,"ĠtÃłu":2160,"uÃ´i":2161,"Ġváº»":2162,"tÃ©c":2163,"ĠTH":2164,"Ġchá»Ľ":2165,"Ġ48":2166,"Anh":2167,"Ġphi":2168,"ĠlÃ¢m":2169,"ĠnhÃ¬n":2170,"ĠmÃ¹a":2171,"Há»Ļi":2172,"ĠngÆ°á»£c":2173,"ĠTuy":2174,"Ġlá»ħ":2175,"hÃ¬nh":2176,"tÃ¡c":2177,"ĠnghÃ¨o":2178,"Ġtiá»ħn":2179,"ĠdÆ°á»¡ng":2180,"ĠchÃ¡u":2181,"ĠtÃ¡i":2182,"Ġngáº¯n":2183,"ĠCÃ²n":2184,"Ġ200":2185,"Äĳáº¡i":2186,"Ġ=":2187,"ĠNi":2188,"ĠTR":2189,"bua":2190,"á»ıt":2191,"ĠngÄĥn":2192,"56":2193,"ĠthÃµn":2194,"hÃłng":2195,"ond":2196,"ten":2197,"tá»«":2198,"ĠmÃ³c":2199,"ĠCuá»Ļc":2200,"ĠÄĳáº¯n":2201,"Ġáº¡":2202,"Ġthá»¥":2203,"Ġxá»©":2204,"Ġmá»ĩnh":2205,"Ġtá»ıc":2206,"ķng":2207,"lÆ°á»£ng":2208,"Ġsong":2209,"ĠbÃ´n":2210,"ĠNgÃłi":2211,"Ġngo":2212,"nÃło":2213,"ĠxÃ´":2214,"Ġlá»Ńa":2215,"ĠCÃ¡ch":2216,"Ġdiá»ĩt":2217,"Ġhoáº¡i":2218,"Ġkháº¯p":2219,"Ġtáº§m":2220,"NgÆ°á»Ŀi":2221,"Ġngá»«ng":2222,"phÃ":2223,"Ġnhiá»Ŀn":2224,"Ġtá»¡nh":2225,"hÆ¡n":2226,"mÃ¬nh":2227,"bÃ©c":2228,"kho":2229,"Ġde":2230,"Báº£n":2231,"Ġtuá»ķi":2232,"áº·n":2233,"to":2234,"Ġthá»Ń":2235,"32":2236,"á»Ľt":2237,"Ġloáº¡t":2238,"cu":2239,"Ġmen":2240,"Ġá»ĥ":2241,"Ġsuá»ĳt":2242,"á»Ľch":2243,"áº³n":2244,"54":2245,"Ġmáº½":2246,"ĠphÃº":2247,"ĠphÃ¡o":2248,"ĠÃ³":2249,"ĠPH":2250,"ĠHá»į":2251,"ĠNeue":2252,"Ġ47":2253,"ĠUá»·":2254,"khi":2255,"ĠCÆ¡":2256,"Ġtá»±a":2257,"Ġ49":2258,"ĠmÃ¢u":2259,"ÄĲiá»ģu":2260,"Ġluyá»ĩn":2261,"Ġnhiá»ĩt":2262,"ĠtáºŃn":2263,"Ġthuáº§n":2264,"buá»ĳc":2265,"Ġcháº¯n":2266,"Ġcháº¡y":2267,"ĠcÃ´":2268,"bi":2269,"Theo":2270,"NhÆ°":2271,"Ġvui":2272,"Ġon":2273,"ĠMan":2274,"Ġbáº¡c":2275,"Ġcá»Ńa":2276,"Do":2277,"ĠsÆ¡":2278,"Ġviá»Ŀn":2279,"phÃ¡c":2280,"ĠphiÃªn":2281,"Ġ80":2282,"Ġchá»įn":2283,"trung":2284,"mi":2285,"Ġmong":2286,"ĠPhÃ":2287,"Sá»±":2288,"ĠdÅ©ng":2289,"us":2290,"Ġngá»Ŀ":2291,"Ã£nh":2292,"ĠThá»¥y":2293,"ĠTáº¥t":2294,"ĠÄĳá»Ļt":2295,"Sau":2296,"³t":2297,"NgÃły":2298,"den":2299,"44":2300,"ChÃŃnh":2301,"55":2302,"cÃ²n":2303,"Ġcá»±ng":2304,"ew":2305,"chá»ĳng":2306,"Ġná»ķ":2307,"Ġliá»Ŀn":2308,"mÆ¡":2309,"Ġhá»ı":2310,"ter":2311,"má»Ľi":2312,"ĠbuÃ´n":2313,"ĠlÅ©":2314,"nhiá»ĩm":2315,"Ġvay":2316,"Ġbá»ĳn":2317,"¹ng":2318,"pÃ´":2319,"viÃªn":2320,"Ġá»ķn":2321,"ÃĶ":2322,"Äĳáº§u":2323,"Ġsáº¯t":2324,"Ã²a":2325,"Ġmá»«ng":2326,"ĠPhi":2327,"ĠÄĲá»ĥ":2328,"ĠÄĲÃ¢y":2329,"Má»Ļt":2330,"ĠCáº§n":2331,"lo":2332,"ĠÃ´":2333,"ĠRi":2334,"á»ĥn":2335,"ĠMá»ıc":2336,"Ľm":2337,"ĠIV":2338,"Ġnáº¡n":2339,"Ġthá»ıa":2340,"Ġkhuyáº¿t":2341,"ÄĲá»ĥ":2342,"hai":2343,"Ġquá»ı":2344,"ĠÆ¡n":2345,"Ġvá»£":2346,"ĠÄĳáº¹p":2347,"els":2348,"ĠÄĳÃ¡p":2349,"táºŃp":2350,"sÃ¡ch":2351,"thÃ´ng":2352,"ĠÄĳua":2353,"Ġxáº¥u":2354,"ĠthiÃªn":2355,"ĠÄĳÃª":2356,"hem":2357,"hein":2358,"ĠBáº£n":2359,"lÃ´":2360,"Ġ70":2361,"ĠchÃło":2362,"180":2363,"TW":2364,"ef":2365,"Ġháº³n":2366,"xk":2367,"ÄĤ":2368,"be":2369,"ren":2370,"ĠÄĳÆ°Æ¡ng":2371,"ĠsÃ¡u":2372,"da":2373,"Ġgá»ĳc":2374,"ĠdÄ©":2375,"men":2376,"ĠHung":2377,"hoÃłn":2378,"ĠlÃºa":2379,"Ġ+":2380,"ĠTheo":2381,"Å©i":2382,"me":2383,"Ġuy":2384,"ĠÄĥ":2385,"Ġxáº¿p":2386,"Ġtrá»¡nh":2387,"sáº½":2388,"ĠNhÃ¢n":2389,"ĠrÃ£i":2390,"*.":2391,"si":2392,"Ġhiá»ĥm":2393,"Ġpháº¥n":2394,"lá»Ŀi":2395,"gr":2396,"tinh":2397,"ĠXi":2398,"ĠtÃº":2399,"Æ°Æ¡i":2400,"á»¥i":2401,"Ġ57":2402,"á»Ļp":2403,"Ġngang":2404,"Ġbáº¯n":2405,"ĠchÃºt":2406,"pi":2407,"Ġ46":2408,"Ġlá»¥c":2409,"ĠVin":2410,"ĠÄĳá»±ng":2411,"80":2412,"ĠcháºŃm":2413,"Ġtrá»ĵng":2414,"Ġsá»£i":2415,"Ġliá»ģn":2416,"Æ°á»Ľp":2417,"tin":2418,"ĠcÃ¢y":2419,"con":2420,"ll":2421,"ĠhÃł":2422,"Ġlá»«a":2423,"ĠÃģ":2424,"pÃ¡c":2425,"thá»©c":2426,"rÃª":2427,"ĠnhiÃªu":2428,"giai":2429,"nÃ³i":2430,"Ġxong":2431,"ĠSo":2432,"cáº§n":2433,"Ġphe":2434,"ĠkhÃ¡ch":2435,"ĠÄĳá»ĳc":2436,"Ġdáº¡ng":2437,"Ġtai":2438,"lao":2439,"ÄĳÃ´":2440,"phong":2441,"Ġhuáº¥n":2442,"triá»ĥn":2443,"Ġ31":2444,"ĠnuÃ´i":2445,"Æł":2446,"ban":2447,"áº¢":2448,"Ġ...":2449,"Ġtháº©m":2450,"náº¿ch":2451,"nÄĥng":2452,"ĠÆ°á»Ŀ":2453,"Ġkhuynh":2454,"Ġkiá»ĩm":2455,"ngels":2456,"heinische":2457,"ĠtÃ¡ch":2458,"Ġhoa":2459,"ĠthoÃ¡t":2460,"ĠgiÃ¡m":2461,"tw":2462,"Ġláº¡":2463,"52":2464,"Ġxo":2465,"há»įc":2466,"tiá»ģn":2467,"ĠkÃª":2468,"ĠPhÃ´":2469,"Ġná»Ŀn":2470,"Ġhá»ģ":2471,"Ġder":2472,"Ġná»Ĺi":2473,"ĠquÃ¡n":2474,"nháºŃn":2475,"Ġtháº³ng":2476,"táº¿":2477,"Ġtiá»Ŀu":2478,"Äĳa":2479,"ĠgiÃłu":2480,"Ġlá»Ĺi":2481,"ĠsÃłng":2482,"Ġkiáº¿m":2483,"Ġchiáº¿c":2484,"Ġchá»Ŀ":2485,"ĠÄĲa":2486,"41":2487,"ÄĳoÃłn":2488,"Ġcha":2489,"Ġcan":2490,"Ġbá»Ľt":2491,"Ġá»ħ":2492,"ĠhÃ¹ng":2493,"ro":2494,"Ã³n":2495,"Nga":2496,"arx":2497,"ĠkhÃŃch":2498,"LÃª":2499,"uyá»ħn":2500,"Ġ56":2501,"ĠÄĳÃ´":2502,"á»Ń":2503,"tiáº¿n":2504,"Ġ196":2505,"de":2506,"ĠÄĳÃ³i":2507,"bá»ĭ":2508,"Ġkhiáº¿n":2509,"hoáº·c":2510,"Ġcanh":2511,"ĠLÆ°u":2512,"Ġquyá»ĥn":2513,"gia":2514,"uá»µ":2515,"Ġ67":2516,"ĠSong":2517,"láºŃp":2518,"thá»ĳng":2519,"ĠDÃ¢n":2520,"Ġmáº¡i":2521,"Sá»ĳ":2522,"Ġthoáº£":2523,"Ġ59":2524,"tÃ´":2525,"ĠIn":2526,"Äĳáº¡o":2527,"ĠchÄĥng":2528,"giÃ¡":2529,"ĠbÃ¨":2530,"Ġbáº£y":2531,"Ġthiá»ĥu":2532,"biá»ĥu":2533,"ĠVi":2534,"Ãµm":2535,"cháº¿":2536,"ĠKho":2537,".)":2538,"ĠPhri":2539,"art":2540,"ĠmÃ´n":2541,"lá»Ľ":2542,"ve":2543,"ĠÃ¡":2544,"Ġ58":2545,"Ġthuá»ĳc":2546,"ly":2547,"Ġtráº§n":2548,"ĠdÃłnh":2549,"ĠVá»":2550,"ĠRe":2551,"pÆ¡":2552,"EN":2553,"sau":2554,"ĠcÆ°á»Ľp":2555,"Ġváº¡n":2556,"Ġpao":2557,"ba":2558,"vá»":2559,"Äĳáº¥u":2560,"ĠXV":2561,"Ġphá»Ľ":2562,"ĠÃ¡i":2563,"Ġty":2564,"Ã¨m":2565,"53":2566,"ĠMi":2567,"Ã´m":2568,"Ġphá»ıi":2569,"Ġá»ıc":2570,"dá»¥ng":2571,"sinh":2572,"Ġsá»Ľm":2573,"pháº©m":2574,"dá»±ng":2575,"Ġ1871":2576,"Ġthá»Ŀ":2577,"Ġphá»ıp":2578,"Ãªnin":2579,"ĠBi":2580,"ĠBÃ¡o":2581,"ce":2582,"ĠTuyÃªn":2583,"Ġnhá»Ľ":2584,"Ġhá»ĵ":2585,"įt":2586,"ĠsÃºng":2587,"Ġtáº£i":2588,"Ġmáº«u":2589,"ĠXI":2590,"chi":2591,"ÄĳrÃŃch":2592,"VÃ¬":2593,"Ġquá»¹":2594,"Ġbá»Ļi":2595,"xa":2596,"um":2597,"ĠbÃ¹":2598,"Ġhoá»ı":2599,"ĠLi":2600,"ÄĲáº¡i":2601,"áº£nh":2602,"Ġtrá»Ŀi":2603,"Ġgáº¥p":2604,"xky":2605,"thuá»Ļc":2606,"trá»įng":2607,"ÃĢ":2608,"tÃ¬nh":2609,"tÃŃnh":2610,"Ġngáº¡i":2611,"nguyÃªn":2612,"á»ĳn":2613,"Ġ;":2614,"schen":2615,"sa":2616,"Ġnam":2617,"pa":2618,"Tá»«":2619,"ĠkhÃ´i":2620,"ĠdÃ²ng":2621,"Ġtuyá»ĥn":2622,"ĠdÃµ":2623,"Ġká»ĭch":2624,"phÃ¡i":2625,"á»Ļn":2626,"ĠÄĳÃłi":2627,"khá»¥ng":2628,"ge":2629,"Ġnháº¹":2630,"tá»±":2631,"ĠtrÄĥm":2632,"Ġdáº§u":2633,"nÃ³":2634,"Ġcháº¥m":2635,"ondon":2636,"ÄĳÃ¢y":2637,"ĠvÃ²ng":2638,"ĠCÃ´":2639,"Äĳiá»ĥm":2640,"Ġquanh":2641,"vá»¥":2642,"Ġthá»ķ":2643,"43":2644,"Ġcáº¯t":2645,"Ġtuyáº¿n":2646,"ĠTÆ¡":2647,"luáºŃn":2648,"GH":2649,"42":2650,"51":2651,"xÃŃt":2652,"ĠtráºŃt":2653,"Æ°á»£u":2654,"Viá»ĩc":2655,"LÆ°u":2656,"Ġsá»ıch":2657,"ĠXX":2658,"ĠmÃ¬":2659,"váº¥n":2660,"xtÆ¡n":2661,"thÆ°á»Ŀng":2662,"ĠTrÆ°á»Ľc":2663,"Ġand":2664,"wi":2665,"Ġá»Ļc":2666,"Ġdá»ĳi":2667,"ci":2668,"phÃ¡p":2669,"Ġá»¡":2670,"cia":2671,"xÆ¡n":2672,"ĠPhran":2673,"ĠRheinische":2674,"PhÃ¡p":2675,"káº¿t":2676,"Ġngu":2677,"ĠthÄĥm":2678,"gtÆ¡":2679,"ÃĤ":2680,"tÄĥng":2681,"Ġthiá»ĩp":2682,"ĠphÃ³":2683,"Chá»ī":2684,"cháº¥t":2685,"Ġ69":2686,"Ġcá»±":2687,"rÄĥng":2688,"Ġdáº¥u":2689,"§y":2690,"ĠÄĳen":2691,"ĠchÃºc":2692,"ĠÄĲoÃłn":2693,"179":2694,"ÄĲá»©c":2695,"ĠÄĳá»£i":2696,"Ġ66":2697,"há»ĩ":2698,"ĠY":2699,"kha":2700,"ĠlÃ¡":2701,"Ġxe":2702,"Ġláº»":2703,"trÃ¬nh":2704,"Ġsá»©":2705,"Ġlai":2706,"¬n":2707,"ĠthÆ°á»£ng":2708,"ĠLÃ¡t":2709,"Ġbi":2710,"ĠnhÆ°á»£ng":2711,"188":2712,"máº¡nh":2713,"Ġcáº£n":2714,"ber":2715,"Ġná»£":2716,"ĠHiáº¿n":2717,"Ġdes":2718,"Ġá»Ľt":2719,"Ġláº¯m":2720,"ĠTháº¿":2721,"rin":2722,"ĠchÃºa":2723,"£t":2724,"Ġ68":2725,"ĠÄĳai":2726,"xÃ¢y":2727,"Ľn":2728,"ToÃłn":2729,"lá»£i":2730,"Ġchá»©a":2731,"Ġdáº¡y":2732,"chuyá»ĥn":2733,"Ġphá»ın":2734,"Ġthan":2735,"Ã³ng":2736,"Ġquay":2737,"at":2738,"ĠNgoÃłi":2739,"ĠNew":2740,"Ġ77":2741,"á»ıi":2742,"Ġ1870":2743,"ĠCau":2744,"ĠLÃªnin":2745,"giÆ¡":2746,"Iá»":2747,"Ġbáº¥y":2748,"ĠRÃ´":2749,"ĠÄĳau":2750,"Ġche":2751,"ĠvÆ°Æ¡ng":2752,"uyáº¿n":2753,"iá»Ŀng":2754,"ĠThanh":2755,"ĠthÃº":2756,"ÄĳÆ°á»Ŀng":2757,"Ġsoáº¡n":2758,"Ġphá»Ŀ":2759,"ĠtÃ²a":2760,"hÃ³a":2761,"áº¾":2762,"Ġdá»ĭp":2763,"ĠthÃ¡c":2764,"Ġ197":2765,"Nam":2766,"Ġmá»±c":2767,"ĠBd":2768,"res":2769,"ĠTrÃªn":2770,"chÆ°a":2771,"ĠkÃ¨m":2772,"ĠGiá»":2773,"Ġnguyá»Ŀn":2774,"Äĳá»ĭa":2775,"],":2776,"Ġninh":2777,"Ġda":2778,"La":2779,"ĠbÃ¡":2780,"our":2781,"Ġmay":2782,"Äĳo":2783,"ĠQuÃ¢n":2784,"ĠBÃ¡c":2785,"bÆ¡":2786,"ĠquÃªn":2787,"chÃŃ":2788,"ÄĳÃ´n":2789,"ĠkÃŃnh":2790,"Ġháº¡nh":2791,"Nghá»ĭ":2792,"Ġgiá»ıo":2793,"ĠNÃ³":2794,"Å©n":2795,"ĠÄĲá»Ļ":2796,"ĠchÃŃn":2797,"hoáº¡t":2798,"Æ¯á»":2799,"ĠbÃ©":2800,"ĠBÃłi":2801,"Ġphá»©c":2802,"Ġgiáº¿t":2803,").-":2804,"Ġloáº¡n":2805,"cÃ¡i":2806,"nhau":2807,"ĠrÆ°á»£u":2808,"189":2809,"ĠÄĳáº¡n":2810,"Ġcáº¥m":2811,"ĠmÃ£n":2812,"váºŃy":2813,"Ġsi":2814,"Ġrá»«ng":2815,"Ġkim":2816,"ĠPi":2817,"ĠHy":2818,"táº¥t":2819,"Kh":2820,"Ġká»µ":2821,"áº¢N":2822,"ÄĲá»ĵng":2823,"Ba":2824,"ĠBÃª":2825,"Ġ1872":2826,"Ġhá»©a":2827,"der":2828,"ĳt":2829,"ĠcÃ¢n":2830,"txÆ¡":2831,"Ġtuá»³":2832,"ĵc":2833,"ĠÃ¡nh":2834,"Xem":2835,"tÆ°á»Łng":2836,"Ġháº£i":2837,"Ġz":2838,"Ġ1850":2839,"ĠKhuÃªn":2840,"náº¿u":2841,"Ã£y":2842,"ĠChiáº¿n":2843,"Ġ179":2844,"ĠRanh":2845,"ĠMÃ£":2846,"uÃ½":2847,"¥i":2848,"ĠBá»ī":2849,"Ġháº¹p":2850,"ĠCr":2851,"ĠrÆ¡i":2852,"ĠThe":2853,"tÃºt":2854,"ĠHiá»ĩp":2855,"cÃ¹ng":2856,"ke":2857,"ĠhÆ¡i":2858,"rinh":2859,"máº·t":2860,"Ġváº£i":2861,"ĠHÃª":2862,"Ġ180":2863,"lá»±c":2864,"VÃł":2865,"rief":2866,"ĠLondon":2867,"ken":2868,"ĠSá»ĳ":2869,"Äĳá»Ļ":2870,"Ġvang":2871,"uá»ĵng":2872,"Ġpháº¡t":2873,"rÃŃt":2874,"tá»Ļc":2875,"ĠRu":2876,"Ġgay":2877,"ĠlÃ£ng":2878,"ĠhÃ¨":2879,"chung":2880,"gá»":2881,"Ġngá»Ļ":2882,"ĠÄĳá»ĵn":2883,"ĠsoÃ¡t":2884,"tháº¥y":2885,"báº£o":2886,"á»ĥ":2887,"ĠgiÃł":2888,"ĠliÃªu":2889,"ĠtoÃł":2890,"TrÆ°á»Ľc":2891,"¦A":2892,"Ġha":2893,"ĠxÃºc":2894,"ĠLáº¡p":2895,"van":2896,"Quá»ĳc":2897,"ĠchÃ¢m":2898,"Ġrá»«":2899,"ĠAu":2900,"ĠThÃ¡ng":2901,"*,":2902,"oli":2903,"Ġlá»Ļn":2904,"ÄĲá»ĳi":2905,"pu":2906,"Ġtáº¯t":2907,"ĠTiáº¿n":2908,"Ã³t":2909,"qua":2910,"giá»¯a":2911,"Bá»Ļ":2912,"nay":2913,"NÄĥm":2914,"ork":2915,"ĠTÃ¬nh":2916,"olk":2917,"ĠtÃ¡m":2918,"ĠÄĲuy":2919,"kiá»ĩn":2920,"CH":2921,"vÃ¬":2922,"ĠvÃŃ":2923,"Ġthuá»·":2924,"ĠhÃło":2925,"Ġtrai":2926,"we":2927,"ĠDer":2928,"Ġ1859":2929,"ĠsÃ¡nh":2930,"Ġhá»Ĺ":2931,"Ġráº½":2932,"ĠhÃºa":2933,"hÃ³":2934,"Ġ79":2935,"phen":2936,"Ġ1851":2937,"sá»©c":2938,"tá»ķ":2939,"įa":2940,"ĠgiÃ¡n":2941,"ĠÆ°á»£c":2942,"ĠThÃ¡i":2943,"thá»©":2944,"Lu":2945,"66":2946,"ĠÄĲan":2947,"Ġet":2948,"ĠhÃºt":2949,"xin":2950,"Ġtráº£i":2951,"Ġchiá»ģu":2952,"Ġrá»ĳi":2953,"minh":2954,"ĠThÆ°á»Ŀng":2955,"Ġxá»©ng":2956,"Ġquen":2957,"thÆ°":2958,"ĠÄĳuá»ķi":2959,"ĠchÄĥm":2960,"ĠÃµ":2961,"Ġchá»ĳi":2962,"lá»Ľn":2963,"ĠmÃ£i":2964,"ĠTia":2965,"Ġmai":2966,"Ġnáº£y":2967,"Ġsáº¡ch":2968,"Ġ1860":2969,"Ġtoan":2970,"ĠbÃºt":2971,"Äĳang":2972,"Ġthá»Ľch":2973,"Ġ1852":2974,"Ġá»ŀ":2975,"ĠthÃ¡nh":2976,"ĠCá»¦A":2977,"GHEN":2978,"ĠdÃłng":2979,"Cuá»Ļc":2980,"Ġ................................................................":2981,"ĠCho":2982,"tá»©c":2983,"ĠÃģo":2984,"há»Ŀ":2985,"Ġvá»Ľ":2986,"tham":2987,"rá»ĳt":2988,"biáº¿n":2989,"ĠThá»±c":2990,"Ġmáº¹":2991,"ĠlÃłnh":2992,"Khi":2993,"Ġma":2994,"bun":2995,"ris":2996,"Ġá»©":2997,"ĠhÃłi":2998,"Ġ1868":2999,"KhÃ´ng":3000,"ĠLÃŃp":3001,"ná»¯a":3002,"ĠNháºŃt":3003,"Ġá»©c":3004,"lÃªn":3005,"ĠStu":3006,"giáº£i":3007,"ĠgÆ°Æ¡ng":3008,"lÃŃch":3009,"áº¹n":3010,"ĠÄĳá»ınh":3011,"lai":3012,"ĠNguyá»ħn":3013,"hay":3014,"ĠTa":3015,"Ġ1869":3016,"gu":3017,"háº¿t":3018,"ĠbÃ´ng":3019,"ĠÄĳiá»ģn":3020,"ĠQuy":3021,"ĠÄĳoÃ¡n":3022,"ĠáºŃ":3023,"ĠÄĳáºŃp":3024,"Ġkháº©n":3025,"ĠGiÆ¡":3026,"Ġ32":3027,"Ġkhoáº»":3028,"Ãį":3029,"ĠÃĵc":3030,"UY":3031,"vÃ´":3032,"á»ĳng":3033,"--------------------------------------------------------------------------------------------------------------------------------":3034,"CÃ³":3035,"ÄĳÃ´ng":3036,"ĠPru":3037,"Ġtá»ī":3038,"Ġlinh":3039,"ĠNiu":3040,"ĠphÃµn":3041,"Ġáº£o":3042,"67":3043,"Bá»":3044,"láº§n":3045,"Ġsá»¥":3046,"ĠÄĲá»¥n":3047,"NhÃł":3048,"Ġnháº¥n":3049,"xÃ´":3050,"ĠVáºŃy":3051,"Ġgh":3052,"ĠcáºŃu":3053,"ĠlÃłng":3054,"ÄĲÃ³":3055,"ttg":3056,"Ġen":3057,"quáº§n":3058,"Ġá»£":3059,"ĠHiá»ĩn":3060,"eut":3061,"ĠÄĳiá»ĥn":3062,"Ġlá»±a":3063,"ĠViá»ĩn":3064,"tiáº¿p":3065,"nhiÃªn":3066,"Ġá»«":3067,"Ġti":3068,"ĠtuÃ½":3069,"Ġluá»¹":3070,"dÆ°á»Ľi":3071,"ĠCu":3072,"Ã¹i":3073,"ngÃłnh":3074,"Ġná»ģ":3075,"Ġá»į":3076,"oÃłng":3077,"cá»ıc":3078,"ttgart":3079,"Ġyá»Ŀ":3080,"ĠdáºŃy":3081,"Ġ90":3082,"Ġmáº¯c":3083,"ĠchÃłng":3084,"Ġbá»Ŀ":3085,"Ġkhuyáº¿n":3086,"].":3087,"Ãºi":3088,"ou":3089,"ĠgÃ¡i":3090,"Pháº£i":3091,"ĠthÆ°á»Łng":3092,"Ġ1853":3093,"Ġlá»ĩch":3094,"Ġ78":3095,"ĠtrÆ°ng":3096,"Ġdá»ĩt":3097,"ĠxÃ³a":3098,"Ġáº§":3099,"bÃ¬nh":3100,"lÃ£nh":3101,"á»ħ":3102,"ĠCÅ©ng":3103,"ĠÆ°á»£":3104,"ĠcÆ°á»Ŀi":3105,"ĠCá»ıc":3106,"ĠThÃłnh":3107,"Lá»Ŀi":3108,"chÃ":3109,"Ġ1913":3110,"Ġtráº¯ng":3111,"ĠkhÃ¡i":3112,"liÃªn":3113,"Ġná»Ļp":3114,"ĠBÃ¬nh":3115,"thiáº¿t":3116,"lÄĥng":3117,"rai":3118,"ĠNG":3119,"ĠVáº¥n":3120,"ĠlÅ©y":3121,"ĠLÃło":3122,"giá»Ľi":3123,"ĠxoÃ¡":3124,"³i":3125,"ĠĊ":3126,"tá»ĳp":3127,"70":3128,"Ġ500":3129,"ngoÃłi":3130,"ĠnháºŃt":3131,"ĠXanh":3132,"phá»§":3133,"ok":3134,"Ġlui":3135,"ĠGá»Ńi":3136,"sel":3137,"ĠcáºŃn":3138,"Ġcá»Ľ":3139,"ĠXa":3140,"Ġá»Ń":3141,"Ġbuá»ķi":3142,"cá»©":3143,"Äĳá»ģu":3144,"69":3145,"MÃģC":3146,"ĠdÃµi":3147,"Ġtráº¡i":3148,"Ġxá»Ļt":3149,"grÃ¡t":3150,"ĠtÃ¹ng":3151,"ĠTáº¡i":3152,"vai":3153,"má»įi":3154,"aily":3155,"Chá»§":3156,"Ġmá»ī":3157,"ĠCon":3158,"ĠÄĳá»ıng":3159,"xmÃ¡c":3160,"Tuy":3161,"ĠhÄĥng":3162,"ĠVá»Ľi":3163,"gian":3164,"Ġgiáº£ng":3165,"ĠnghÃ¬n":3166,"Ãªng":3167,"ĠGiÃ´n":3168,"biáº¿t":3169,"ĠStuttgart":3170,"ÃĬ":3171,"Ġngá»±a":3172,"Phá»":3173,"imes":3174,"ĠTri":3175,"mÃŃt":3176,"ĠLao":3177,"68":3178,"Ġtriá»ģu":3179,"Ġniá»ģm":3180,"Ĺng":3181,"ĠloÃłi":3182,"Ġny":3183,"Ġbuá»ĵn":3184,"Ġlá»³c":3185,"Ġcá»Ŀ":3186,"oliti":3187,"áº¤":3188,"ĠÄĳe":3189,"cá»Ļng":3190,"ĠVolk":3191,"ĠRa":3192,"ĠBu":3193,"ĠMÃ´":3194,"Æ°á»Ŀn":3195,"et":3196,"bune":3197,"nÃªn":3198,"ĠÄĤ":3199,"gen":3200,"ĠNgh":3201,"ĠlÃ´i":3202,"phÃ¢n":3203,"á»ıch":3204,"Ġmá»Ļ":3205,"ªnh":3206,"ÄĲÃ£":3207,"ĠVI":3208,"ĠLá»Ŀi":3209,"láº¿ch":3210,"Ġman":3211,"ct":3212,"Ġcá»ĳt":3213,"khoáº£ng":3214,"cao":3215,"luáºŃt":3216,"ĠTáºŃp":3217,"uáº©n":3218,"ĠCHá»":3219,"tÃª":3220,"bá»įn":3221,"hÆ°á»Ľng":3222,"phuá»ĳc":3223,"ĠHen":3224,"gÃ´":3225,"ĠphÃºc":3226,"Ġau":3227,"so":3228,"vÄĥn":3229,"Äĳáº¥t":3230,"Ġá»¥n":3231,"Ġ1866":3232,"Ġthiá»ĩu":3233,"Ġ1854":3234,"á»¥c":3235,"Ġ1865":3236,"trÃło":3237,"ĠtÃ³m":3238,"ĠtÃºc":3239,"Ã©m":3240,"lÃ½":3241,"Ġvinh":3242,"Ġnhá»¥c":3243,"hÃŃch":3244,"ÄĳÃºng":3245,"ĠcÃły":3246,"ĠViÃªn":3247,"Ġthá»§y":3248,"ĠCá»¥":3249,"Ġhoang":3250,"pháº£n":3251,"ÃĤN":3252,"Ġno":3253,"Ġ1905":3254,"ĠCÃ¡n":3255,"Ġbá»¡nh":3256,"sá»ĳng":3257,"má»Ľc":3258,"Ġduyá»ĩt":3259,"Ġáº¿n":3260,"ĠyÃªn":3261,"ĠhÆ°":3262,"ĠmÆ°Æ¡i":3263,"ĠÄĳoáº¡t":3264,"ĠChÃº":3265,"ĠVÃĢ":3266,"NhÃ¢n":3267,"ĠPlÃª":3268,"táº¡i":3269,"Ġ1861":3270,"Ġháº±ng":3271,"á»ın":3272,"Ġgáº¯t":3273,"ĠBun":3274,"rb":3275,"tÆ¡n":3276,"ĠtÆ°á»Ŀng":3277,"ĠÄĳá»£t":3278,"Ġsa":3279,"ráº¥t":3280,"Ġ1921":3281,"hoáº¡ch":3282,"ĠláºŃt":3283,"Tá»ķng":3284,"Ġ1917":3285,"ĠdÃ¡m":3286,"ĠNÃ³i":3287,"ĠvÃ¢y":3288,"muá»ĳn":3289,"Ġviá»ħn":3290,"Æ°á»¡i":3291,"ĠPan":3292,"ĠÄĳá»¥ng":3293,"Ġgáº¡t":3294,"ĠÄĳÃ¡m":3295,"Pa":3296,"ĠhÃ¡i":3297,"Ġtuyá»Ŀn":3298,"Ġxá»ıc":3299,"ĠbÃ¡ch":3300,"ĠkhÃ³a":3301,"ĠcáºŃp":3302,"Ġgiáº·c":3303,"Ġgiáº¥u":3304,"ĠMarx":3305,"ĠGá»":3306,"ĠDie":3307,"ĠÄĳáº£":3308,"ĠXIX":3309,"AN":3310,"giá»Ŀ":3311,"©o":3312,"Ġtá»ĳc":3313,"ĠnÃł":3314,"emok":3315,"Ġ1867":3316,"ĠCÃ¡i":3317,"ĠIX":3318,"ĠGa":3319,"tiáº¿ng":3320,"Ġ:":3321,"Ã¨n":3322,"Ġ1993":3323,"Qu":3324,"tiÃªu":3325,"ĠDaily":3326,"ĠEngels":3327,"biá»ĩt":3328,"emokra":3329,"ĠNÃ´ng":3330,"Ġ1891":3331,"ĠUy":3332,"Ġnáº¡p":3333,"ĠmÃ¡u":3334,"ĠNgay":3335,"ĠThá»§":3336,"200":3337,"ĠHo":3338,"Ġkhá»ĳng":3339,"Ġ34":3340,"Ġ1882":3341,"Ġá»³":3342,"Ġ198":3343,"ĠrÃ£":3344,"ĠÄĲá»ĳc":3345,"Ġtá»ĵi":3346,"Ġbá»Ŀn":3347,"CÃ²n":3348,"ĠPháº§n":3349,"ĠLÃºc":3350,"Ġtá»Ŀn":3351,"phá»¥c":3352,"cÃ¡n":3353,"giÃ¡o":3354,"ĠBruy":3355,"tuyÃªn":3356,"Äĳá»Ļi":3357,"ĠTiáº¿p":3358,"hÃ´n":3359,"khÆ¡":3360,"ĠmÃłu":3361,"lá»ĳp":3362,"Ġ33":3363,"thÆ°Æ¡ng":3364,"Ġphá»Ľa":3365,"nÃª":3366,"ĠSt":3367,"dÃ¹ng":3368,"sen":3369,"ĠÅ©":3370,"ĠdÃ£":3371,"Ġmu":3372,"tÃŃch":3373,"ĠdÆ°Æ¡ng":3374,"Ma":3375,"Ġtruy":3376,"Äĳá»ķi":3377,"Ġtha":3378,"ĠchÄĥn":3379,"and":3380,"Cáº§n":3381,"ĠTháºŃt":3382,"ĠKáº¿t":3383,"Ġ1892":3384,"89":3385,"Ġngá»ĵi":3386,"Ġláº·p":3387,"ĠÃ³c":3388,"ck":3389,"rá»ĳp":3390,"cÃº":3391,"Ġcá»§":3392,"váº«n":3393,"Ġthiá»ĩt":3394,"ĠbÆ°u":3395,"Ġbá»ĭp":3396,"táº¡o":3397,"ĠlÃ³":3398,"Ġtá»±u":3399,"190":3400,"ĠHáº£i":3401,"tra":3402,"ĠvÄ©nh":3403,"Ġrá»ĩt":3404,"ruá»Ļng":3405,"quÃ¡":3406,"ĠKinh":3407,"ĠTimes":3408,"Xin":3409,"áºŃc":3410,"Ġtiáº¿c":3411,"ĠcÃ£i":3412,"Ġtáº¥m":3413,"Ġchá»ĵng":3414,"tháº¯ng":3415,"ĠsÃ³t":3416,"Ġhá»ĵn":3417,"Ġlan":3418,"ĠTribune":3419,"ĠÄĳÃ¡":3420,"ĠlÅ©ng":3421,"Ġchiáº¿u":3422,"ĠsÃºc":3423,"Má»¹":3424,"¡m":3425,"ÃĶng":3426,"Ġá»ın":3427,"ĠTHÃģ":3428,"cÃłng":3429,"ĠLá»":3430,"Hai":3431,"ĠmÃ³n":3432,"Ġngá»¥":3433,"ĠLai":3434,"chsel":3435,"Ġhoan":3436,"Ġráº»":3437,"Ġ1855":3438,"¬I":3439,"ĠÄĥng":3440,"ĠTÄĥng":3441,"Ġvo":3442,"Ġngoan":3443,"bÃłi":3444,"ĠngÃ´i":3445,"Viá»ĩt":3446,"miá»ģn":3447,"ĠÃ©p":3448,"Ġháº¡ng":3449,"váºŃt":3450,"thÃ¢n":3451,"ĠtháºŃn":3452,"'s":3453,"ÄĳÃ¡nh":3454,"Ġvá»Ŀi":3455,"Ġluá»¥n":3456,"wechsel":3457,"ngay":3458,"ĠmÃ´i":3459,"ĠÄĲá»ĭ":3460,"Ġmá»Ŀi":3461,"mÃ´":3462,"ĠTá»Ŀ":3463,"Ġchá»ĳt":3464,"ĠÄĲi":3465,"cá»¥ng":3466,"LiÃªn":3467,"ĠgÃ¬n":3468,"Ġcháº·n":3469,"ĠThuá»µ":3470,"riefwechsel":3471,"Ġdá»įa":3472,"............":3473,"Ġ1864":3474,"Ġthá»ınh":3475,"ĠGá»¬I":3476,"plÆ¡":3477,"ĠphÃºt":3478,"stanh":3479,"ĠVa":3480,"Ġtrá»ı":3481,"ĠhÃłm":3482,"ĠVII":3483,"Ġnghá»ī":3484,"Ġchinh":3485,"Ġ1890":3486,"ĠEn":3487,"ĠLe":3488,"Ġbá»ģ":3489,"Ġhá»ĭ":3490,"Äĳáº·c":3491,"ĠÄĳÃłm":3492,"ĠPhÃ¡t":3493,"chÃº":3494,"chia":3495,"ĠVIII":3496,"ĠGr":3497,"ed":3498,"ĠÄĳá»«ng":3499,"Ġá»Ľch":3500,"79":3501,"Ġmá»¡":3502,"tional":3503,"ĠMai":3504,"Ġngáº¡c":3505,"Ġbá»ın":3506,"Ġna":3507,"Ġchá»³":3508,"quáº£n":3509,"Ġná»¥ng":3510,"%,":3511,"lÃ¡t":3512,"ĠchÃ©p":3513,"ĠtrÃ¹":3514,"thá»§":3515,"min":3516,"ver":3517,"VÄĥn":3518,"ĠPÃ´":3519,"ĠDiá»ĩm":3520,"ħu":3521,"¯n":3522,"liá»ĩu":3523,"yáº¿u":3524,"ThÆ°a":3525,"ĠNÆ°á»Ľc":3526,"ĠtÃºy":3527,"á»į":3528,"ĠbáºŃc":3529,"Táº¥t":3530,"ĠMáº¡ch":3531,"ĠKhá»":3532,"trá»Ł":3533,"thá»ĭ":3534,"ĠghÃ":3535,"ĠXÃª":3536,"ĠlÃ£i":3537,"Ġhá»įa":3538,"Ġá»Ļt":3539,"Ġtiá»ģm":3540,"ĠSÃ¡c":3541,"Ġsá»ıng":3542,"ĠbÃª":3543,"ĠMá»Ĺi":3544,"oÃºc":3545,"78":3546,"Ġ1847":3547,"ĠĠ":3548,"Ġhuá»·":3549,"kiáº¿n":3550,"quáº£":3551,"ÄĤNG":3552,"ÄĳÃª":3553,"Ġáº¥p":3554,"%.":3555,"bá»ı":3556,"Ġong":3557,"Ġdá»ĭ":3558,"Ġ300":3559,"wischen":3560,"ĠlÃ¹i":3561,"Ġgiam":3562,"ĠXÃ¢y":3563,"ven":3564,"Ġngy":3565,"tháº§n":3566,"ĠMuá»ĳn":3567,"ĠCháº³ng":3568,"Ġtrá»«u":3569,"truyá»ģn":3570,"Ġbáº§n":3571,"Ġtrá»¥":3572,"trÆ°á»Łng":3573,"CT":3574,"ĠXla":3575,"ĠmÆ¡":3576,"lá»Ŀ":3577,"Ġw":3578,"chá»©ng":3579,"ĠTrÆ°á»Ŀng":3580,"Ġhá»Ľ":3581,"AI":3582,"Man":3583,"Ġáº±":3584,"ĠLuÃµn":3585,"uyn":3586,"zia":3587,"ĠÄĳáº»":3588,"ĠTá»¥i":3589,"tá»ķng":3590,"ká»³":3591,"eine":3592,"ĠtÃ¹y":3593,"Ġthnh":3594,"ĠZ":3595,"Engels":3596,"Ġhao":3597,"Ġá»¯ng":3598,"³y":3599,"Ġbay":3600,"ĠÄĳÃªm":3601,"ĠcÆ°á»¡ng":3602,"Ġbáº¡t":3603,"Ġsá»¥p":3604,"):":3605,"ĠNH":3606,"sá»Ń":3607,"han":3608,"thÃªm":3609,"á»Ŀn":3610,"ĠDi":3611,"ĠLÃłm":3612,"ĠhÃ´n":3613,"Ġ1918":3614,"kÃª":3615,"ĠÄĳÃ¡o":3616,"ĠThiÃªn":3617,"Ġthá»ıi":3618,"VáºŃy":3619,"Ġháº¡t":3620,"bao":3621,"ha":3622,"cháº³ng":3623,"ĠTu":3624,"Å©a":3625,"ĠSá»":3626,"á»ĵi":3627,"Ġtiá»Ŀn":3628,"khai":3629,"Ġ1889":3630,"ĠKiá»ĥm":3631,"á»Ļm":3632,"Ġhá»§":3633,"nhu":3634,"ĠNguyÃªn":3635,"tá»Ŀ":3636,"ĠHay":3637,"Ġhá»¡":3638,"Ġthuyá»ģn":3639,"Ġkhen":3640,"ĠTÆ¯":3641,"INH":3642,"vÃ¹ng":3643,"báº¥t":3644,"Ġriá»Ŀng":3645,"ft":3646,"Ġá»Ŀi":3647,"Ġchuá»Ļc":3648,"cháº¥p":3649,"Ġáº¿t":3650,"ĠÄĳá»³ng":3651,"TÆ°":3652,"Ġcháº¡p":3653,"lÃŃp":3654,"ĠmÃŃt":3655,"199":3656,"77":3657,"Ġá»ĵ":3658,"ĠÄ©":3659,"Ġthá»Ŀm":3660,"gem":3661,"ĠLuáºŃt":3662,"xÃª":3663,"thÃŃch":3664,"Ã©o":3665,"ÄĳÆ°a":3666,"ĠtÃµm":3667,"ĠtrÃ´ng":3668,"Ġbá»Ľ":3669,"Má»ıc":3670,"khá»ıi":3671,"TrÃªn":3672,"Äĳu":3673,"TÃ¬nh":3674,"178":3675,"Ġ1858":3676,"áº¥N":3677,"Ġlm":3678,"Ġthoáº¡i":3679,"thÃ¡i":3680,"Ġli":3681,"Hiá»ĩn":3682,"Ġtháº§y":3683,"ĠchÃµn":3684,"Ġyá»Ŀu":3685,"ĠcáºŃy":3686,"Ġtrá»«ng":3687,"Ġ1863":3688,"ĠChi":3689,"ĠbáºŃt":3690,"ĠCá»¥c":3691,"gan":3692,"phi":3693,"doanh":3694,"Ġtháº£m":3695,"Ġ!":3696,"Ġ400":3697,"cá»¥":3698,"Ġsá»ıt":3699,"ĠhÃ¨n":3700,"ĠquáºŃn":3701,"ĠÄĲÃª":3702,"ĠQU":3703,"hÃ©c":3704,"ĠCam":3705,"ĠÃ¡ch":3706,"pe":3707,"ĠtÃ¡":3708,"Ġmáº¡c":3709,"pen":3710,"ĠchÆ¡i":3711,"IV":3712,"pha":3713,"ĠcÄĥm":3714,"ĠTin":3715,"Viáº¿t":3716,"Ġcuá»ĵng":3717,"Ġtá»¡m":3718,"ChÆ°Æ¡ng":3719,"ĠBÃ¢y":3720,"Æ°m":3721,"ĠSta":3722,"ĠPhÃ³":3723,"sá»Ł":3724,"tháºŃt":3725,"ld":3726,"tá»īnh":3727,"ĠXVIII":3728,"bá»Ľc":3729,"lÆ°u":3730,"Ŀu":3731,"ĠmuÃ´n":3732,"Ġ76":3733,"ĠParis":3734,"ĠbÃ³":3735,"erlin":3736,"¡n":3737,"cá»ĳt":3738,"ĠÄĲá»ģ":3739,"xÃŃch":3740,"Ġá»Ŀn":3741,"Ġtáº¡c":3742,"Ġ1893":3743,"Marx":3744,"Ġcá»ĳc":3745,"Ġngá»įn":3746,"ĠdÆ°á»Ŀng":3747,"Ġháº¡m":3748,"cáº§u":3749,"tá»«ng":3750,"Ġcam":3751,"Ġrá»³t":3752,"áº¿c":3753,"ĠkhÃ©o":3754,"uÃ½p":3755,"ĠhuÃ¢n":3756,"mai":3757,"thay":3758,"Ca":3759,"ĠThÃ´ng":3760,"vÃª":3761,"ers":3762,"ĠPÃ´n":3763,"tá»ĳt":3764,"Ġvá»Ļi":3765,"chuáº©n":3766,"Ġtráº¥n":3767,"Ġ89":3768,"á»³t":3769,"ĠkhÃ¢u":3770,"ĠsÃºt":3771,"ent":3772,"Ġnhan":3773,"Ġphá»ıo":3774,"uÃ´ng":3775,"Ġtá»ĳn":3776,"llgem":3777,"ghÃª":3778,"ĠGiai":3779,"Ġmá»ıy":3780,"lÄ©nh":3781,"ĠÄĳiá»ĩp":3782,"Ġtá»ķn":3783,"Ġtung":3784,"Ġá»ĩc":3785,"mÃª":3786,"ĠÄĳÃ²n":3787,"ĠÄĳiá»ĩu":3788,"Ã¹a":3789,"ĠÆ°á»Ľ":3790,"ĠSocia":3791,"Ġchá»Ł":3792,"ĠHa":3793,"Ġkhiáº¿p":3794,"Ġsá»¥ng":3795,"ĠHan":3796,"ÄĳÆ¡n":3797,"hoÃ¡":3798,"Ġmá»¥":3799,"ĠBá»Łi":3800,"Ġ1846":3801,"má»¥c":3802,"Ġvá»Ł":3803,"ĠTo":3804,"ĠÃ©c":3805,"kin":3806,"Ġngá»§":3807,"ĠlÃ³nh":3808,"!)":3809,"ĠsÃ´i":3810,"Ġkhá»Ľ":3811,"xbuá»ĳc":3812,"trÃ¡ch":3813,"Ġbiá»Ŀn":3814,"á»§y":3815,"nháº±m":3816,"phÃ²ng":3817,"ĠDáº":3818,"cra":3819,"ĠÃª":3820,"Má»":3821,"Ġpháº«n":3822,"Ġ1862":3823,"bá»ĳ":3824,"les":3825,"Ġtrá»ĳng":3826,"ĠGu":3827,"Ġrá»ĳt":3828,"ĠTHá»":3829,"Ġ1894":3830,"cÆ°á»Ŀng":3831,"ĠVá»¡":3832,"Æ¯á»ľ":3833,"ĠDá»±":3834,"ĠGia":3835,"Ġtrá»¥c":3836,"Ġtrá»Ľ":3837,"ĠHoa":3838,"NÃ³i":3839,"emokrat":3840,"ĠmáºŃu":3841,"Ġdao":3842,"ĠxÆ°a":3843,"ĠLau":3844,"1849":3845,"Ġzwischen":3846,"ff":3847,"rá»Ļng":3848,"ĠÄĳá»ĳn":3849,"ĠLá»ĭch":3850,"ĠNhiá»ģu":3851,"Ġkháº£o":3852,"pháºŃn":3853,"ĠDÃ¹":3854,"ĠlÆ°á»£t":3855,"land":3856,"ĠkhoÃ¡n":3857,"ĠtrÃ²n":3858,"chiáº¿m":3859,"Äĳáº£m":3860,"ĠSi":3861,"Ļp":3862,"Ġim":3863,"Ġcu":3864,"Pháº§n":3865,"Ġngáº«u":3866,"hÃ´i":3867,"ĠkhoÃ¡t":3868,"Ġ1856":3869,"ĠthÃ¢m":3870,"Ġkhá»ĳn":3871,"ĠBá»įn":3872,"llgemeine":3873,"ĠMÃª":3874,"Ġngá»¥y":3875,"Ġáº©n":3876,"ĠnÄĥ":3877,"Ġ1995":3878,"vu":3879,"báº¯t":3880,"cáº£i":3881,"no":3882,"thuáºŃt":3883,"nuÃ½p":3884,"ĠÃ´n":3885,"Ġngá»«a":3886,"und":3887,"Ġthá»ĭt":3888,"má»©c":3889,"ĠtrÃº":3890,"Ã£o":3891,"ĠHÃ©c":3892,"NgoÃłi":3893,"ĠGI":3894,"dá»±":3895,"Ġbá»Ļc":3896,"Ġgá»Ĺ":3897,"ĠÄĳiÃªn":3898,"chuyÃªn":3899,"báº¯c":3900,"ªN":3901,"âĢľ":3902,"Ġ1873":3903,"ĠPhong":3904,"Ġuá»ĳng":3905,"há»¯u":3906,"Ġmi":3907,"Ġkhinh":3908,"Ġá»Ļi":3909,"An":3910,"háº¡n":3911,"nen":3912,"Ġmau":3913,"ĠDáºªN":3914,"vanh":3915,"tá»Ľi":3916,"Ġ1994":3917,"hiá»ĩu":3918,"Ġtáº·ng":3919,"Ġchá»¥c":3920,"ĠtÃłng":3921,"mÃ´n":3922,"ĠHÆ¡n":3923,"vin":3924,"ĠThá»Ŀi":3925,"BÃłi":3926,"ıc":3927,"Ġchuyáº¿n":3928,"ĠcÃµu":3929,"nháºŃp":3930,"nghiÃªn":3931,"Ġlá»¥":3932,"lÆ°Æ¡ng":3933,"ĠnÃ²ng":3934,"Ġláº·ng":3935,"Ġá»ħng":3936,"phÃŃ":3937,"Ġdie":3938,"Ġhe":3939,"Ġtá»Ľch":3940,"áº¾N":3941,"Ġly":3942,"Ġtá»Ľ":3943,"196":3944,"Ġ1906":3945,"Ġngá»±":3946,"Vá»Ľi":3947,"ngÃłi":3948,"Ġngá»ĳc":3949,"Æ°Æ¡n":3950,"ĠChá»Ľnh":3951,"Ġ1885":3952,"ĠThÆ°":3953,"ĠCHÃŃ":3954,"ĠnÃ©m":3955,"ĠCuá»ĳi":3956,"Ġ87":3957,"Ġton":3958,"ĠthÃ¡ch":3959,"ĠhoÃ£n":3960,"as":3961,"ĠLÃ´":3962,"ĠBáº¢N":3963,"ĠÄĤNG":3964,"ĠlÃ´":3965,"ÄĳrÆ¡":3966,"Ġ1884":3967,"Ġbá»ī":3968,"yÃªu":3969,"lung":3970,"cá»©u":3971,"ĠrÃ¨n":3972,"Tháº¿":3973,"Ġá»¯n":3974,"ĠmÃª":3975,"ĠGien":3976,"88":3977,"ĺI":3978,"ĠtháºŃp":3979,"ĠBá»©c":3980,"µu":3981,"XX":3982,"Ġpen":3983,"Ġhiá»ĥn":3984,"ÄĳÃ¡ng":3985,"ThÃ¡ng":3986,"ĠGiá»Ŀ":3987,"ĠcÆ¡n":3988,"ĠGiÃ´":3989,"ĠxÃŃt":3990,"âĢĿ":3991,"Nguyá»Ŀn":3992,"Ġ1857":3993,"BÃ¢y":3994,"ĠÄĲáº¿":3995,"ĠÄĳoan":3996,"Ġmá»Ŀ":3997,")-":3998,"binh":3999,"ĠxuÃ¢n":4000,"ĠrÃºp":4001,"Ġthá»±":4002,"má»Ĺi":4003,"Tiáº¿p":4004,"ĠTiá»ĥu":4005,"ĠnhÃ£":4006,"Ġná»ĳi":4007,"ĠKi":4008,"Ġá»ĩn":4009,"ĠÄĳÅ©i":4010,"ĠCrÆ°m":4011,"ĠCáº£":4012,"Äĳoáº¡n":4013,"ĠVá»¥":4014,"TáºŃp":4015,"VI":4016,"phan":4017,"váºŃn":4018,"ĠZeit":4019,"ĠMáº·c":4020,"Ġtáº£ng":4021,"mÃ¡y":4022,"ĠbÃ²":4023,"Äĳin":4024,"ngá»":4025,"ĳc":4026,"ĠBáº±ng":4027,"Ġá»ĳi":4028,"phá»¥":4029,"ĠÄĳá»ĳt":4030,"hÃªm":4031,"ĠgÃµy":4032,"áº«m":4033,"hiá»ĩp":4034,"tÃ©":4035,"hiá»ĥu":4036,"Äĳá»Ļc":4037,"Ġua":4038,"Há»ĵ":4039,"1871":4040,"ĠkhuyÃªn":4041,"á»¹r":4042,"ĠsÃ´":4043,"Ġcá»ıo":4044,"ĠTHÃģNG":4045,"Ġbá»ģn":4046,"trang":4047,"ĠPhÃ´n":4048,"ĠnhÅ©ng":4049,"loáº¡i":4050,"ĠRá»ĳt":4051,"lem":4052,"Ġngi":4053,"ĠÄĳá»¡nh":4054,"Ġrá»Ĺng":4055,"diá»ħn":4056,"ĠCÆ°Æ¡ng":4057,"Ġ1844":4058,"giÃª":4059,"Ġmáº¡n":4060,"Ġco":4061,"Táº¡i":4062,"áº¬":4063,"Ġmiá»ħn":4064,"ThÆ°":4065,"ĠkÃŃn":4066,"ĠPhÃ¡i":4067,"ĠkhÃº":4068,"Vá»":4069,"khoa":4070,"ná»Ļi":4071,"Ġcai":4072,"ĠPhÃª":4073,"eur":4074,"áºł":4075,"CÃ¡ch":4076,"ÄĳÄĥng":4077,"ĠBerlin":4078,"que":4079,"ĠBáº£o":4080,"ĠXuy":4081,"Ġ1895":4082,"bu":4083,"pxÃŃch":4084,"trá»±c":4085,"ĠNhiá»ĩm":4086,"Ġhuá»ĳng":4087,"khu":4088,"Ġcáº£ng":4089,"ĠTá»īnh":4090,"Ġle":4091,"1848":4092,"chÆ°Æ¡ng":4093,"Ġkiá»ģu":4094,"Ġ1842":4095,"ĠÄĳá»Ľch":4096,"chá»Ĺ":4097,"tÆ°Æ¡ng":4098,"Ġngáº£":4099,"Ġsá»ķ":4100,"Ġmáº£nh":4101,"ĠCÄĥn":4102,"ĠDeut":4103,"ĠHá»£p":4104,"rbeit":4105,"pháº¡m":4106,"Äĳá»¥ng":4107,"Ġ45":4108,"lÃºc":4109,"tÃłi":4110,"rÃµ":4111,"ĠGiáº£i":4112,"ná»ģn":4113,"ÆłNG":4114,"Váº¥n":4115,"Ġtá»Ľn":4116,"ĠBáº¿ch":4117,"tz":4118,"xc":4119,"aus":4120,"ĠHá»ĵng":4121,"Ġláº¯ng":4122,"giÃºp":4123,"eg":4124,"tan":4125,"ĠTÃłi":4126,"diá»ĩn":4127,"ĠchÃªnh":4128,"ĠCri":4129,"gÃŃch":4130,"Ġá»ģu":4131,"ĠnhÆ°á»£c":4132,"Ġá»ıi":4133,"hÆ°á»Łng":4134,"is":4135,"omm":4136,"Ġtuá»ĩ":4137,"Khu":4138,"biá»ĩn":4139,"ĠváºŃ":4140,"ĠÄĲÃ£":4141,"Ġ86":4142,"ĠghÃ©t":4143,"Ġváº£":4144,"ĠQua":4145,"Ġuá»":4146,"Ġsay":4147,"Ġá»ıp":4148,"tháº£o":4149,"á»ŀ":4150,"ĠHá»įc":4151,"chá»Ľnh":4152,"ĠGiÃ¡":4153,"1872":4154,"Ġháº£":4155,"The":4156,"ĠYork":4157,"ĠnÃ³ng":4158,"nhÃµn":4159,"tráº¡ng":4160,"ThÃ´ng":4161,"ĠlÃµu":4162,"Ġbá»ĳi":4163,"ĠThÆ°á»£ng":4164,"Ġ600":4165,"sÄ©":4166,"ĠtÄ©nh":4167,"ĠhÃ³y":4168,"ĠNghiÃªn":4169,"76":4170,"Ġnguá»µ":4171,"per":4172,"ĠbÃ¡nh":4173,"cá»ĳ":4174,"ĠCan":4175,"Ġdá»¯":4176,"ĠthoÃ¡i":4177,"Ġkháº¥u":4178,"Ġ88":4179,"Äĳr":4180,"ÄĳÃº":4181,"ĠPhá»¥":4182,"bÆ°á»Ľc":4183,"chen":4184,"gÃ¬":4185,"ĠÆ°a":4186,"ĠÄĳáº¯t":4187,"Æ¯ÆłNG":4188,"ĠVÃ´n":4189,"cáº£nh":4190,"Ġná»Ļ":4191,"ĠgÃ¡nh":4192,"quya":4193,"Ġni":4194,"ĠTrÃ¡i":4195,"ĠthÃ³c":4196,"Ġgiá»ıi":4197,"ir":4198,"Cuá»ĳi":4199,"Ġlá»ģ":4200,"xtanh":4201,"á»©ng":4202,"Ġhá»¯ng":4203,"Ġhá»§y":4204,"Song":4205,"tÆ°á»£ng":4206,"Ġvá»±ng":4207,"ern":4208,"Ġ1878":4209,"Ġ1877":4210,"Äĳá»ĭch":4211,"phÃ³ng":4212,"ĠVor":4213,"Ġkhá»©":4214,"Ġ1886":4215,"Cá»":4216,"ig":4217,"Ġhnh":4218,"ĠÄĳÃ´n":4219,"Ġkiá»ĩt":4220,"kiá»ĥm":4221,"ĠtÃ¢y":4222,"ĠphÃºng":4223,"Ġvon":4224,"Ġhá»ĳi":4225,"xÃ©t":4226,"terna":4227,"xl":4228,"Ġgá»įn":4229,"ĠGlÃ¡t":4230,"Ġhá»Ĺn":4231,"ah":4232,"trÆ°Æ¡ng":4233,"Ġá»ĳc":4234,"uá»¥n":4235,"iá»ĩng":4236,"dá»ĭch":4237,"ĠThá»©":4238,"ĠphrÄĥng":4239,"Ta":4240,"BÃ©c":4241,"ĠâĢľ":4242,"ĠhoÃłi":4243,"tráº£":4244,"ron":4245,"Æ°á»£n":4246,"ĠÄĳÃ¨":4247,"Ġbáº¯c":4248,"ĠtÃºng":4249,"Ġ1883":4250,"Giá»":4251,"kháº£":4252,"ĠQuan":4253,"Ġcháº¥n":4254,"ĠVÃŃ":4255,"ĠXin":4256,"CÅ©ng":4257,"Ġcáº¯p":4258,"Ġ150":4259,"ĠBlÄĥng":4260,"viá»ĩn":4261,"Ġtrá»ĳn":4262,"máº¥t":4263,"nÆ¡i":4264,"ĠhÃ©c":4265,"Ġthá»¥i":4266,"Ġquang":4267,"ĠSozia":4268,"Báº¢N":4269,"ĠhÃµ":4270,"cuá»ĳn":4271,"Ġes":4272,"ĠÄĳÃ³n":4273,"PH":4274,"ĠtuÃ¢n":4275,"tiá»ĥu":4276,"Ġsan":4277,"NgÃłi":4278,"giao":4279,"Thá»±c":4280,"Ġ1875":4281,".]":4282,"HÃ´m":4283,"Ġháº¿":4284,"ĠCHá»Ī":4285,"ĠHi":4286,"mua":4287,"ĠlÆ°ng":4288,"ĠQuáº£ng":4289,"pÃ´n":4290,"Ã©n":4291,"ghi":4292,"ĠthÃ³i":4293,"Ġ1920":4294,"ĠMo":4295,"rich":4296,"ĠQuyáº¿t":4297,"ĠphÅ©ng":4298,"tÃ¢m":4299,"Ġáº¥t":4300,"Máº·t":4301,"ĠÃ¡m":4302,"áº«y":4303,"ĠnÃ©t":4304,"ĠnÃłn":4305,"ĠHÃ£y":4306,"ĠCháº¿":4307,"thanh":4308,"ĠphÆ°á»Ŀng":4309,"Ġcá»ĳng":4310,"bli":4311,"chá»³ng":4312,"bá»©c":4313,"ĠVÃŃch":4314,"ĠÄĲáº¿n":4315,"ĠPHÃģ":4316,"ĠCÃ´n":4317,"ná»¥":4318,"Ġthua":4319,"tho":4320,"ká»ĥ":4321,"che":4322,"Ġná»¥":4323,"hÃ¢u":4324,"pin":4325,"ĠbÃªnh":4326,"vá»¯ng":4327,"Ġ120":4328,"Ġ1830":4329,"giáº£m":4330,"xá»ĳp":4331,"Ġkhiáº¿u":4332,"Ãºm":4333,"Ġá»±c":4334,"ĠAllgemeine":4335,"Ġhá»³":4336,"ĠKáº¿":4337,"nhanh":4338,"Ġgieo":4339,"lá»ĭch":4340,"ĠGes":4341,"ĠxÃµy":4342,"Ġ1887":4343,"sang":4344,"iá»ģng":4345,"Ġnhi":4346,"Ġ1840":4347,"cá»ıch":4348,"Ġquáº£ng":4349,"ĠxÃŃch":4350,"ĠKH":4351,"ĠCHÃį":4352,"cuá»ĳi":4353,"ĠÆ°á»Ŀi":4354,"onom":4355,"Ġ1907":4356,"ĠÄĲáº·c":4357,"giáº£":4358,"tions":4359,"Ġ1888":4360,"Ġnhá»¯n":4361,"ort":4362,"BT":4363,"Ġdá»įc":4364,"áº±n":4365,"ning":4366,"Ġhá»Ŀ":4367,"bÃª":4368,"há»ģ":4369,"wá»į":4370,"Ġxá»ī":4371,"ĠSa":4372,"xtÄĥng":4373,"100":4374,"Ai":4375,"vo":4376,"ĠsÃ³c":4377,"triá»ĩu":4378,"Ġ................................................":4379,"cháº¯c":4380,"ĠnÃ¡t":4381,"Ġ1919":4382,"Ġthá»īnh":4383,"Na":4384,"Ġ1845":4385,"nghiá»ĩm":4386,"Thá»©":4387,"gá»įi":4388,"MÆ°á»Ŀi":4389,"ĠSá»ı":4390,"Cho":4391,"Iá»ĩ":4392,"ĠTÃ´":4393,"hoÃłng":4394,"ĠmÅ©i":4395,"taat":4396,"ĠkÃ¬m":4397,"Ġháº¥":4398,"Ġtáº©y":4399,"Ġ1874":4400,"Ġlá»¯":4401,"Ġváº¹n":4402,"ĠbÃ³ng":4403,"ĠkhuÃ´n":4404,"láº¥y":4405,"sin":4406,"vá»ĭ":4407,"tte":4408,"Ġlá»Ĺ":4409,"riÃªng":4410,"du":4411,"Äĳáº¿":4412,"Ġhoáº¡":4413,"ĠÆ°":4414,"nhá»ı":4415,"Ġngá»£i":4416,"puchia":4417,"xu":4418,"Ġcháº¡m":4419,"ĠMÃł":4420,"177":4421,"ĠTiá»ģn":4422,"ÄĲÃ¢y":4423,"Ġ1876":4424,"Tá»ķ":4425,"Æ¯á»ľI":4426,"ĠbÃ¡m":4427,"chá»ĭ":4428,"sti":4429,"Ġthang":4430,"mÃ´ng":4431,"ost":4432,"phÃª":4433,"Ġhá»ıng":4434,"kháº©u":4435,"tÃªn":4436,"Ġthao":4437,"ĠBau":4438,"Phá»ķ":4439,"vá»±c":4440,"ĳp":4441,"á»Ńl":4442,"Ġná»ĵng":4443,"Äĳá»©ng":4444,"duy":4445,"ĠVÃło":4446,"thiáº¿u":4447,"Ġ1881":4448,"conom":4449,"nan":4450,"ĠgiáºŃn":4451,"Ġdáº¡":4452,"Ġkhá»ıe":4453,"Ġ41":4454,"sstaat":4455,"sá»¥":4456,"ĠgÅ©i":4457,"ĠÄĳÃ£i":4458,"ĠBru":4459,"Ġná»Ĺ":4460,"cá»±c":4461,"ĠLÃł":4462,"ĠMá»įi":4463,"ĠÄĳá»©t":4464,"ĠCl":4465,"Ġmá»¹":4466,"áº·m":4467,"xtÃ´n":4468,"Ġ178":4469,"Báº¯c":4470,"ĠchÃµu":4471,"Ġ1843":4472,"ĠPhÆ°Æ¡ng":4473,"Ġmá»ıng":4474,"ĠCá»¥ng":4475,"xÃ¡c":4476,"ĠquÃª":4477,"ĠghÃª":4478,"ĠÃ¢n":4479,"ĠquÃ©t":4480,"nhuáºŃn":4481,"Ġbá»ĭa":4482,"Ġ................":4483,"Muá»ĳn":4484,"dáº«n":4485,"ĠtrÃłn":4486,"Ġtrá»ıi":4487,"ĠKin":4488,"ĠÄĲÆ¡":4489,"nal":4490,"káº¿":4491,"Ġtrá»ıch":4492,"buá»Ļc":4493,"tuyá»ĩt":4494,"ĠXtÆ¡":4495,"Xi":4496,"ĠGiÃ¡o":4497,"ard":4498,"cal":4499,"Ġáº£n":4500,"tráºŃn":4501,"rÃ¡t":4502,"Ġvá»©t":4503,"rts":4504,"Ġá»¹":4505,"tháº·ng":4506,"ĠdÃ¢y":4507,"Ġphu":4508,"Ġnon":4509,"xÆ°á»Łng":4510,"ĠngÆ°":4511,"York":4512,"ĠÄĳá»ĵi":4513,"Ġ1815":4514,"Con":4515,"tÃ´n":4516,"xp":4517,"ĠLiá»Ŀn":4518,"ĠgiÃªng":4519,"Ġxuáº©n":4520,"huy":4521,"Ġoáº¡":4522,"Ġthá»³c":4523,"ria":4524,"ÄĲÃ´ng":4525,"scha":4526,"Ġtháº£":4527,"Ġmiá»ĩng":4528,"Ġbá»ıc":4529,"ĠoÃł":4530,"cher":4531,"UYá»":4532,"mang":4533,"can":4534,"ngoáº¡i":4535,"Ġcá»Ļt":4536,"Äĳiá»ĩn":4537,"Ġbá»¥ng":4538,"ĠTÃ¡c":4539,"nische":4540,"ĠLÆ¡":4541,"thuyáº¿t":4542,"ĠLÃ½":4543,"nÃ¢ng":4544,"Ġáº¯t":4545,"káº»":4546,"ĠkhoÃ¡":4547,"Ġ1841":4548,"giá»¯":4549,"Ġá»ĳm":4550,"lÃ´ng":4551,"Äĳá»§":4552,"gá»ĵm":4553,"ĠbáºŃn":4554,"quÃµn":4555,"ĠHu":4556,"ĠHÃ´":4557,"Ġsá»ĳt":4558,"giá»ı":4559,".).":4560,"Br":4561,"ĠBiÃªn":4562,"Ġmuá»Ļn":4563,"hau":4564,"Ġer":4565,"Ġxt":4566,"Äĳáº©y":4567,"ĠHÄĥm":4568,"Ġdá»«ng":4569,"ĠXmÃŃt":4570,"Ġ2000":4571,"ĠCá»©":4572,"Ġháº§m":4573,"Ġá»ĵn":4574,"Ġ55":4575,"Ġor":4576,"Thá»Ŀi":4577,"Ġ44":4578,"trá»«":4579,"ĠPhÃ²ng":4580,"90":4581,"Ġhá»ĥ":4582,"ord":4583,"ĠhÃ¡t":4584,"Ġdiá»ĩu":4585,"Ġranh":4586,"ĠNgÃ¢n":4587,"Ġtá»¥n":4588,"ĠtrÃ¡":4589,"cht":4590,"Ri":4591,"Ġá»ĳt":4592,"ple":4593,"Ġváº¿t":4594,"Ġga":4595,"Ġá»ķi":4596,"ĠuáºŃ":4597,"luÃ´n":4598,"dÃ©p":4599,"rá»¥":4600,"Ġnháº«n":4601,"Ġtháº£y":4602,"gÃ¢y":4603,"ĠHáº¡":4604,"Ã¨NH":4605,"ste":4606,"tá»¥c":4607,"Ġgháº¿":4608,"ĠNhá»Ŀ":4609,"Ġ1879":4610,"nÃŃch":4611,"Äĳe":4612,"Tá»Ŀ":4613,"HÃł":4614,"¨C":4615,"ĤN":4616,"ĠsÆ°á»Ŀn":4617,"xb":4618,"Ġru":4619,"ĠBe":4620,"ĠDÆ°á»Ľi":4621,"ÃģCH":4622,"luy":4623,"lanh":4624,"Ġphá»Ļp":4625,"ĠVá»Ģ":4626,"ĠthÆ°á»Ľc":4627,"ĠÄĳáºŃy":4628,"Ġhá»ī":4629,"Ã£ng":4630,"Ġeo":4631,"ĠVÃ©c":4632,"Ġ1912":4633,"xtan":4634,"rÃºt":4635,"tes":4636,"Ġtim":4637,"Äĳem":4638,"rÃ¢y":4639,"Ġxanh":4640,"Ġáº¯":4641,"Ġam":4642,"ĠPoliti":4643,"nghiÃªm":4644,"³p":4645,"Ġnháº£y":4646,"ĠVÃ´":4647,"xti":4648,"tay":4649,"thá»«a":4650,"iá»ħu":4651,"Ġnáº¡i":4652,"khÄĥn":4653,"ĠGá»ĳt":4654,"Qua":4655,"má»Ł":4656,"ĠquÃ¡t":4657,"ĠBlin":4658,"Ġthá»ĭnh":4659,"Ġ1880":4660,"ĠCHÃįNH":4661,"ĠLÃºt":4662,"ĠrÆ°á»¡i":4663,"cÆ°Æ¡ng":4664,"Ġmáº¡o":4665,"ĠTÃµy":4666,"ĠlÆ°á»Ľi":4667,"hÃ²":4668,"Ġpro":4669,"ĠDáº¯c":4670,"ĠhÃ£m":4671,"wá»įrts":4672,"sÃ¡ng":4673,"ĠBoÃ³c":4674,"gien":4675,"Ġgo":4676,"Ġhá»ĩt":4677,"ĠBriefwechsel":4678,"£n":4679,"ĠlÃª":4680,"ĠArbeit":4681,"ĠGiuy":4682,"ĠChá»³ng":4683,"ĠkhÃ´n":4684,"ĠgÆ°á»Ŀi":4685,"tai":4686,"Ġ43":4687,"hoáº£ng":4688,"Ġki":4689,"Iáº¾N":4690,"bur":4691,"danh":4692,"Ġphiá»ģn":4693,"dá»":4694,"Ġva":4695,"Ġlá»Ŀ":4696,"Ġáº«":4697,"ĠCao":4698,"Ġá»·":4699,"VII":4700,"khÃ³":4701,"ĠÄĳÃły":4702,"phÃ¡":4703,"á»ım":4704,"Ġháº¹n":4705,"Ġtrá»¡":4706,"ĠTráº§n":4707,"CÃ¡i":4708,"ĠÄĲá»Ŀ":4709,"QÄĲ":4710,"ÄĳÃ©c":4711,"dung":4712,"ec":4713,"bÃ¡n":4714,"ĠkhÃ¡t":4715,"Ġlá»ıng":4716,"ĠDÄ©":4717,"Ġchá»§ng":4718,"stai":4719,"sao":4720,"Ġdoáº¡":4721,"Mo":4722,"Ġhon":4723,"Äĳam":4724,"ĠDoÃ³c":4725,"chá»ĭu":4726,"ĠbÃ¹ng":4727,"tiÃªn":4728,"Ġgáº¡o":4729,"1852":4730,"ĠcÄĥng":4731,"Ġcá»±u":4732,"Ho":4733,"Æ¡ne":4734,"uÃ½t":4735,"Ġáº¤":4736,"ĠÄĳá»©a":4737,"ĠBÃł":4738,"Ġná»Ŀu":4739,"giá»ĳng":4740,"ĠXÃ£":4741,"ĠThu":4742,"ĠGioÃ³c":4743,"Cá»¥ng":4744,"ĠtáºŃt":4745,"á»Ļo":4746,"Ġláº¡m":4747,"Ġngá»¥n":4748,"ĠMen":4749,"tre":4750,"Nguyá»ħn":4751,"rei":4752,"biÃªn":4753,"pá»¥":4754,"ĠBen":4755,"ĠRá»¥":4756,"gáº§n":4757,"ĠÄĳÃł":4758,"Cá»Ļng":4759,"ĠBá»Ļc":4760,"Ġdáº·m":4761,"ĠphiÃªu":4762,"ĠPar":4763,"xnÆ¡":4764,"ĠnhÆ°á»Ŀng":4765,"Ġgiá»įng":4766,"thÆ¡":4767,"ĠSÃłi":4768,"Ġ65":4769,"CÃ´":4770,"lÆ°á»£c":4771,"ĠVÃª":4772,"ĠHoÃłng":4773,"Ġ177":4774,"ĠthÃł":4775,"ĠÄĲáº©y":4776,"198":4777,"ĠÄĳá»īnh":4778,"Ġ75":4779,"TH":4780,"ĠbÃ£o":4781,"ĠgÃł":4782,"Ġkhiá»ĥn":4783,"!!":4784,"nhÃ³m":4785,"ĠnghÃªnh":4786,"Ġá»ģn":4787,"ĠXÃ©c":4788,"ĠXÃ´viáº¿t":4789,"Mi":4790,"ĠGÃ²n":4791,"iá»Ŀm":4792,"ĠluÃ¢n":4793,"Ġ1930":4794,"ĠVolksstaat":4795,"lá»Ľp":4796,"ĠhÅ©a":4797,"ĠPro":4798,"os":4799,"ĠHer":4800,"ĠPhrai":4801,"PhÃ¡t":4802,"ĠngÃłn":4803,"ĠSÆ¡n":4804,"Ġtáº¡":4805,"ĠTiáº¿ng":4806,"ĠHÃ´m":4807,"vá»«a":4808,"Ngay":4809,"§A":4810,"Ġ42":4811,"ournal":4812,"ĠvÃ£n":4813,"ĠAb":4814,"ĠXcá»ĳt":4815,"mÆ°u":4816,"ĠmÃ²n":4817,"áº¥c":4818,"ĠCampuchia":4819,"Ġká»Ľch":4820,"ĠNational":4821,"há»įp":4822,"ĠMá»¥c":4823,"bÃ¡c":4824,"Ġáº½":4825,"Ġmáº¡ch":4826,"est":4827,"hen":4828,"ell":4829,"xuá»ĳng":4830,"ĠKhoa":4831,"Ġ72":4832,"ĠPhÃ©c":4833,"ĠtrÃ¹ng":4834,"ĠKÃª":4835,"ĠSá»Ł":4836,"ıt":4837,"Ġdá»ĳt":4838,"ĠPres":4839,"ĠVÃ¢y":4840,"ssen":4841,"ĠTÃª":4842,"Ġnháº§m":4843,"ĠPhrÄĥng":4844,"latt":4845,"Ġ{":4846,"Ġpoliti":4847,"the":4848,"hiáº¿n":4849,"Ġhá»¥m":4850,"Ġ51":4851,"BÃ¡c":4852,"hoÃł":4853,"ĠGhi":4854,"ĠChÃºa":4855,"ĠÄĳáº¥":4856,"ĠVáº£":4857,"TháºŃt":4858,"ĠÄĲáº§u":4859,"®NG":4860,"Ġnghiá»Ŀn":4861,"Ġá»ĳng":4862,"ĠgiÃ¡p":4863,"ger":4864,"oen":4865,"ĠgiÃ³":4866,"ĠXÄĥng":4867,"ĠHÃ¬nh":4868,"ChÃº":4869,"Ġcá»¡":4870,"ĠSá»ıu":4871,"hÃºc":4872,"gabe":4873,"ĠhÆ°Æ¡ng":4874,"ĠChá»Ľn":4875,"Briefwechsel":4876,"Tin":4877,"ser":4878,"Ġháº¥p":4879,"ĠXá»Ŀ":4880,"á»ıo":4881,"Ġnáº¿p":4882,"ĠTÃŃnh":4883,"ĠtrÃ¢u":4884,"vue":4885,"sia":4886,"Le":4887,"Ġphiáº¿n":4888,"ĠÃ©t":4889,"ĠÄĳáº±ng":4890,"NÆ°á»Ľc":4891,"dan":4892,"lÆ°":4893,"ĳo":4894,"ĠvÆ°Æ¡n":4895,"ĠÄĲÃło":4896,"Ġmá»ıi":4897,"ĠsÃ³ng":4898,"ĠmÃºc":4899,"ĠPr":4900,"cáº£m":4901,"ĠÃµn":4902,"Ġmá»ĩt":4903,"Sá»":4904,"ĠMor":4905,"bin":4906,"á»Ĭ":4907,"lá»¥":4908,"Ġhoáº£":4909,"ĠGÃ´":4910,"á»§ng":4911,"ĠngÆ°á»Ŀ":4912,"62":4913,"ĠPha":4914,"ĠTÃªn":4915,"ĠbÃ³p":4916,"ssi":4917,"hÃ¬n":4918,"ĠNgÆ°á»£c":4919,"ĠXuÃ¢n":4920,"giÃłnh":4921,"Nhiá»ĩm":4922,"dá»¥c":4923,"£m":4924,"ĠgÃ¡c":4925,"phá»ĳ":4926,"ĠngÆ°á»¡ng":4927,"báº§u":4928,"sai":4929,"ĠbÄĥng":4930,"Ġhiáº¿p":4931,"ĠBá»¥":4932,"cá»Ń":4933,"vá»ĩ":4934,"nguá»ĵn":4935,"ĠCáº£i":4936,"Ġtá»¥ng":4937,"ĠkhiÃªu":4938,"á»Ńlnische":4939,"thá»ıng":4940,"Ġfor":4941,"tei":4942,"ÄĳÃ¬nh":4943,"thá»¡":4944,"ĠVolks":4945,"Ġnho":4946,"Ġtá»ıi":4947,"ĠFran":4948,"Ġnhá»ĭ":4949,"br":4950,"ĠgÃ³c":4951,"hÃ²a":4952,"Ġgáº¡ch":4953,"ĠsiÃªu":4954,"á»ıp":4955,"ĠvÆ°á»Ŀn":4956,"xlÃ¡p":4957,"ÃįCH":4958,"Æ¡nevÆ¡":4959,"ÃģO":4960,"ĠÄĳÆ¡":4961,"ĠsÄĥn":4962,"ĠNGÆ¯á»ľI":4963,"KhuÃªn":4964,"Ġhiáº¿u":4965,"Vi":4966,"ĠtrÅ©":4967,"Ġlá»Ľnh":4968,"Li":4969,"lis":4970,"ĠTriá»ģu":4971,"ldemokrat":4972,"Łm":4973,"Ġlay":4974,"ĠnhÃºm":4975,"Ġpa":4976,"chuyá»ĩn":4977,"ĠTá»±":4978,"ĠInterna":4979,"Uá»":4980,"Ġbom":4981,"Ġ1839":4982,"Ġáº¡i":4983,"ĠÃ¡t":4984,"Ġtháº¥m":4985,"So":4986,"Ġháº§":4987,"ĠÄĲiá»ĩn":4988,"tá»ĵn":4989,"Ġká»Ļo":4990,"khá»§ng":4991,"ĠMin":4992,"Há»®NG":4993,"Äĳá»¥":4994,"Káº¿t":4995,"txen":4996,"Ġphiá»ĩt":4997,"Ġá»ī":4998,"Ġfá»¹r":4999,"thÃ´n":5000,"ĠHoÃłn":5001,"Ġkáº½":5002,"ĠHá»ĵi":5003,"vÃŃt":5004,"ĠvÅ©ng":5005,"Ġbáº¡ch":5006,"ĠXuáº¥t":5007,"ĠTÃ¢n":5008,"lá»ĩ":5009,"Sch":5010,"oáº¡n":5011,"Phi":5012,"khen":5013,"ĠÄĳá»Ŀ":5014,"khÃ³a":5015,"Ġ110":5016,"lÃŃt":5017,"ĠdÃły":5018,"bÃªn":5019,"nháº¯c":5020,"Ġ?":5021,"ĠÄĳÃºc":5022,"thuáºŃn":5023,"ure":5024,"----------------------------------------------------------------------------------------------------------------------------------------------------------------------------------------------------------------------------------------------------------------":5025,"Ná»Ļi":5026,"ĠsoÃ¡i":5027,"niá»ĩm":5028,"PÃª":5029,"ĠnhÃ¡t":5030,"Ġsá»ī":5031,"khá»Łi":5032,"Äĳáº·t":5033,"ĠhÃ£i":5034,"Ġcáº©n":5035,"ĠChÃ¢u":5036,"ĠsÆ°á»Ľng":5037,"----------------------------------":5038,"--------------------------------------------------------------------------------------------------------------------------------------------------------------------------------------------------------------------------------------------------------------------------------------------------":5039,"ĠthÃ¡m":5040,"phá»ĳi":5041,"Chiáº¿n":5042,"ĠXu":5043,"ĠTrÆ°á»Łng":5044,"ĠÄĲá»ĭa":5045,"ĠláºŃu":5046,"ĠMu":5047,"Ġyá»ĥ":5048,"ĠvÃµ":5049,"ĠchÃ¡nh":5050,"ĠchÃ¡y":5051,"sse":5052,"ĠmÆ°á»£n":5053,"ĠÄĲáº¡o":5054,"zig":5055,"ĠTá»ım":5056,"ĠÄĳáº¯p":5057,"iá»ħ":5058,"Ġ1922":5059,"ĠÆ°Æ¡":5060,"ĠÄĲÃ¬nh":5061,"ĠRá»Ľt":5062,"vá»įng":5063,"Ġj":5064,"ĠphÃ´":5065,"trao":5066,"Ġre":5067,"ĠTiÃªn":5068,"ĠngoÃ¡i":5069,"87":5070,"Ġ54":5071,"Ġchay":5072,"ĠSÃ©c":5073,"ĠCÃº":5074,"ĠLÃ£nh":5075,"tem":5076,"Ġnghá»ĳo":5077,"schaft":5078,"Re":5079,"ĠdÃ³":5080,"Ġ170":5081,"Ġ97":5082,"tal":5083,"má»¡nh":5084,"ty":5085,"ĠVe":5086,"Ġá»Ľi":5087,"tri":5088,"ĠÄĳá»ĩ":5089,"ĠVÃ¡c":5090,"ká»·":5091,"Ġcháº£y":5092,"eip":5093,"coi":5094,"ĠTRá»Ĭ":5095,"Ġri":5096,"ĠTÃºt":5097,"thi":5098,"Tá»¥i":5099,"Ġ52":5100,"ÄĲÃ´n":5101,"Ġcáº¥y":5102,"ĠlÃ¹ng":5103,"Ġ800":5104,"ĠWi":5105,"Ġlen":5106,"ĠBAN":5107,"Ġlá»ĵ":5108,"ĠÄĳá»ģn":5109,"Ġ1929":5110,"khá»ıc":5111,"nÃº":5112,"ĠChá»ĳng":5113,"ĠTham":5114,"xtÃ´":5115,"500":5116,"Ni":5117,"Ġhá»ķ":5118,"Ġxuyá»Ŀn":5119,"ĠVÆ°Æ¡ng":5120,"báº¡n":5121,"Ġ1931":5122,"lle":5123,"tiona":5124,"ĠQuÃ¡":5125,"ĠBrief":5126,"ĠHuÃ¢n":5127,"BÃ´":5128,"Ġláº¡nh":5129,"rá»":5130,"Ġdá»ĵn":5131,"Ġtuá»ĵng":5132,"Ġváº¯n":5133,"amt":5134,"ĠGhÃª":5135,"Ġ53":5136,"Ġnháº¡c":5137,"Ġlang":5138,"ĠDe":5139,"Ġ1814":5140,"ĠÄĳÃµu":5141,"Ġhá»ĵng":5142,"ĠTHÆ¯":5143,"ninh":5144,"Ġgiá»³p":5145,"nÃºi":5146,"ĠÄĳáº¯c":5147,"ĠbÃµy":5148,"Ġhiáº¿m":5149,"uyáº¿c":5150,"phin":5151,"ÄĲi":5152,"ĠBrÃª":5153,"CÄĥn":5154,"ans":5155,"ĠVai":5156,"ĠlÃ£o":5157,"ĠngÃ¢y":5158,"ĠPphan":5159,"ĠÄĲá»¨C":5160,"máº·c":5161,"ĠmÆ°a":5162,"Ġcáº¥t":5163,"chá»īnh":5164,"xuyÃªn":5165,"ĠHá»Ŀ":5166,"trÃŃ":5167,"Ġbáº£":5168,"Äĳá»Ŀi":5169,"ĠCá»ķ":5170,"ĠcháºŃt":5171,"ĠÄĲáº¥y":5172,"eitung":5173,"bá»Łi":5174,"chÃ¢u":5175,"TB":5176,"dÆ°":5177,"ĠTi":5178,"tháºŃm":5179,"ĠGiá»Ŀng":5180,"Ġ1908":5181,"Ġiá»Ŀ":5182,"cháº¿t":5183,"ausgabe":5184,"nu":5185,"HÃ£y":5186,"ĠsuÃ´ng":5187,"Ġpar":5188,"65":5189,"Ġven":5190,"ĠhÃ£ng":5191,"ĠArbeiter":5192,"ĠJah":5193,"rÃłng":5194,"Ġgan":5195,"ĠLo":5196,"1870":5197,"áº®":5198,"ĠgiÃ¡ng":5199,"ĠTrÄĥm":5200,"Ġ62":5201,"táº¯c":5202,"ĠHá»ĩ":5203,"ĠthÃ©p":5204,"64":5205,"Ġráº¯c":5206,"Ġbá»¯a":5207,"ĠDa":5208,"thuáº¿":5209,"amtausgabe":5210,"ĠxtÃ©c":5211,"ĠVorwá»įrts":5212,"UYá»ĤN":5213,"cÃ¡o":5214,"ĠMÃģC":5215,"Ġláº¯p":5216,"ĠXta":5217,"Ġváº¯ng":5218,"Ġcá»©ng":5219,"Ġhá»ĳ":5220,"Ġtoá»ın":5221,"ĠtÃºi":5222,"*-":5223,"Dá»±":5224,"Ġ61":5225,"suáº¥t":5226,"Ġbiáº¿m":5227,"Ġsu":5228,"ĠRÃµ":5229,"eipzig":5230,"ĠhÃ²ng":5231,"cá»§ng":5232,"1865":5233,"Giai":5234,"phÃŃa":5235,"ĠhÃłn":5236,"Ġgiá»ħu":5237,"Ġphá»ĵn":5238,"ĠngÆ°Æ¡i":5239,"ĠSáº¯c":5240,"Ġ250":5241,"ritte":5242,"ĠVer":5243,"ĠGiÄĥng":5244,"Ġ99":5245,"ĠÄĲá»ĭnh":5246,"ĠÄĳá»¥i":5247,"Äĳáº§y":5248,"ĠGiÆ¡nevÆ¡":5249,"Ġthoáº¡t":5250,"Tiáº¿n":5251,"Ġia":5252,"tá»¥":5253,"ħN":5254,"Ġváº½":5255,"ĠPu":5256,"ĠMorning":5257,"ĠbÃ¡u":5258,"ĠNÃª":5259,"ĠBáº¥t":5260,"ĠÃło":5261,"Ġtháº£i":5262,"Ġtháº¯n":5263,"LuÃµn":5264,"Ru":5265,"blatt":5266,"mÄĥng":5267,"ĠHiáº¿c":5268,"Ġáº¥m":5269,"mann":5270,"teilung":5271,"ĠchÃ¬":5272,"XÃ´":5273,"Ġná»Ł":5274,"ĠChÆ°Æ¡ng":5275,"bour":5276,"rá»ĵi":5277,"ĠgÃ¡n":5278,"ram":5279,"ĠngáºŃp":5280,"áº¬P":5281,"Máº·c":5282,"phiáº¿u":5283,"ÄĳÃ³ng":5284,"hÃ£":5285,"1868":5286,"áº¦":5287,"Ġbáº©n":5288,"uá»³":5289,"ĠngÃµn":5290,"ĠPhu":5291,"khoáº£n":5292,"sÃ¡t":5293,"Ġkhá»ķng":5294,"ĠbÃ³n":5295,"Ġhá»Ŀi":5296,"khÃ¡ng":5297,"ĠVan":5298,"ĠCra":5299,"Ra":5300,"ner":5301,"ANH":5302,"rÃ´n":5303,"Ġlau":5304,"Ġ71":5305,"Ġ85":5306,"ĠPHÃģN":5307,"Ľc":5308,"ĠCá»ĳ":5309,"1869":5310,"Ãªm":5311,"ine":5312,"ĠtÃ¡o":5313,"ĠtrÃ¹m":5314,"Ġquá»·":5315,"dÃ¹":5316,"ĠHÃ´n":5317,"ĠuÃ½":5318,"Ġmiáº¿ng":5319,"ĠKhá»¥ng":5320,"ĠthÆ°a":5321,"khá»ĳi":5322,"Ġ................................................................................":5323,"ĠsÃ¡p":5324,"ĠÄĲiá»ĥn":5325,"ĠBá»Ľc":5326,"xe":5327,"ĠtÆ¡":5328,"ĠphÃ©c":5329,"Ġtá»ın":5330,"ĠSÃģCH":5331,"ĠtÄĥm":5332,"Ġhung":5333,"Ġtrá»ĩ":5334,"ĠTrá»":5335,"á»ıng":5336,"ĠSocial":5337,"chá»©":5338,"Ġ1902":5339,"lÃ²ng":5340,"lÃ©p":5341,"Ġun":5342,"rinci":5343,"xcai":5344,"''":5345,"CÆ¡":5346,"Ġao":5347,"ĠNghá»ĩ":5348,"DÆ°á»Ľi":5349,"iá»ħm":5350,"tuáº§n":5351,"qÄĳ":5352,"ĠGiÃª":5353,"PhÃ¡i":5354,"ĠÄĲÃ´":5355,"ÄĳÃ²i":5356,"ĠPari":5357,"Cau":5358,"Ġhá»©c":5359,"Ġ63":5360,"ĠÄĳáº¡":5361,"Ġ130":5362,"ĠMÃ³":5363,"ĠvuÃ´ng":5364,"ÄĳÃŃch":5365,"ĠSáº£n":5366,"Ã½t":5367,"BÃª":5368,"ĠquyÃªn":5369,"Ġá»ĳn":5370,"63":5371,"tháº¥t":5372,"RÃ´":5373,"Ġ64":5374,"ĠKá»Ńlnische":5375,"ĠRevue":5376,"pri":5377,"ħNG":5378,"ĠÄĳá»Ļn":5379,"ĠCháº¯c":5380,"ges":5381,"ĠQuyá»ģn":5382,"ĠkhÄĥng":5383,"sÃºt":5384,"mÃ¡t":5385,"ĠMINH":5386,"VIII":5387,"manh":5388,"ĠhÆ°ng":5389,"ĠHá»ĺI":5390,"Ġ98":5391,"Ġná»į":5392,"Ġ169":5393,"TuyÃªn":5394,"ĠViá»Ŀn":5395,"Be":5396,"ınh":5397,"Ġnga":5398,"ĠÄĲÆ°Æ¡ng":5399,"Äĳáº¡t":5400,"61":5401,"ĠTáº¥N":5402,"1850":5403,"Ġ74":5404,"Ġdá»ĭu":5405,"á»ĭnh":5406,"ĠBÃłn":5407,"guy":5408,"pá»ıc":5409,"táº¡p":5410,"ĠThá»ĭ":5411,"Ġ248":5412,"ats":5413,"dÃłi":5414,"Ġáº·":5415,"á»ĳm":5416,"Ġá»Ľc":5417,"huyá»ĩn":5418,"chte":5419,"Ġ102":5420,"cung":5421,"ná»ķi":5422,"co":5423,"áºµ":5424,"ĠxÃ¡":5425,"Ġá»Ļn":5426,"ĠXVII":5427,"ĠtrÃºng":5428,"ĠAd":5429,"Ġdá»ĳc":5430,"ĠLÃŃt":5431,"ĠÄĲá»Ļi":5432,"Ġdá»ĵi":5433,"Ġkhá»Ľp":5434,"ĠnÃ£":5435,"KÃ½":5436,"DÆ°Æ¡ng":5437,"NQ":5438,"Ġtrá»Ľch":5439,"Ġbe":5440,"ĠxuÃ´i":5441,"Ġ).":5442,"ĠÄĳáº·n":5443,"ĠCÃ¡":5444,"ĠChÆ°a":5445,"!.":5446,"ĠÃ©":5447,"Ġdáº¡n":5448,"Ġá»Ļng":5449,"Ġxi":5450,"1866":5451,"ces":5452,"nÃ©t":5453,"Khá»":5454,"nghá»ĩ":5455,"ĠCáºŃp":5456,"ÄĲu":5457,"Ġ2010":5458,"oni":5459,"Ġ1914":5460,"hÃ³m":5461,"Lan":5462,"QuÃ¢n":5463,"Ġ160":5464,"ĠMÃ´n":5465,"ĠSÃª":5466,"Cá»ıc":5467,"Ġtáº£n":5468,"ĠTáº¾":5469,"Ġgá»Ľm":5470,"Tu":5471,"dáº¯c":5472,"Ġrá»¡":5473,"Ġnhá»ĭp":5474,"ĠÄĳá»ĳng":5475,"ling":5476,"kia":5477,"ĠLáº§n":5478,"ĠJournal":5479,"Bu":5480,"cÄĥng":5481,"Ġden":5482,"Uá»·":5483,"ĠháºŃ":5484,"ĠCÅ©n":5485,"ĠKháº£":5486,"tuy":5487,"Ġ1831":5488,"mu":5489,"ĠÅ©n":5490,"á»ĩ":5491,"Ġváº·t":5492,"Ġkhung":5493,"Ġkhoan":5494,"Äĳá»¥n":5495,"ĠmÃłn":5496,"GiÃ¡":5497,"cÄĥn":5498,"Ġbá»±c":5499,"ĠMÃ´ng":5500,"Ġphá»ıng":5501,"Há»į":5502,"Ġaus":5503,"Iá»Ĩ":5504,"ĠxÆ°ng":5505,"ĠCÃģC":5506,"arl":5507,"niÃªn":5508,"1867":5509,"hn":5510,"ĠtrÃºc":5511,"Ġ1935":5512,"ĠEr":5513,"Ġcá»«":5514,"ĠgÆ°á»Ŀ":5515,"quÃ½":5516,"vá»Ľch":5517,"cháº·t":5518,"fi":5519,"Ġháº©":5520,"áº»o":5521,"kháº¯c":5522,"lau":5523,"ĠkiÃªu":5524,"Ġhá»Ł":5525,"ĠNGH":5526,"Ġá»¥c":5527,"ĠGrun":5528,"nÃŃt":5529,"ĠÄĳon":5530,"ĠSch":5531,"ĠSÃ¡ch":5532,"Ġbá»Ļt":5533,"Ġbá»£m":5534,"ĠXVI":5535,"ĠhÆ¡":5536,"Ġháº¡ch":5537,"tá»Ľnh":5538,"thiá»ĩn":5539,"75":5540,"Neue":5541,"Ġ1000":5542,"mia":5543,"Ġwi":5544,"ĠlÃºng":5545,"ĠquÃ¡i":5546,"ĠkhÆ°á»Ľc":5547,"ek":5548,"ted":5549,"sso":5550,"volu":5551,"Ġ1910":5552,"Ġ73":5553,"Der":5554,"cá»ıi":5555,"ĠPin":5556,"Phong":5557,"Ġsá»¥t":5558,"tÃ¬m":5559,"Ġláº¥n":5560,"XÆł":5561,"bo":5562,"tá»ĭch":5563,"ĠNo":5564,"Ġiá»ĩ":5565,"Ġnhiáº¿p":5566,"ĠMá»Ł":5567,"ĠLong":5568,"ĠHoÃł":5569,"...,":5570,"LÃłm":5571,"nq":5572,"ĠchÃ¡n":5573,"á»©":5574,"Ġdá»Ļi":5575,"hu":5576,"ĠCÃ¹ng":5577,"Ġ95":5578,"Ġlá»¥t":5579,"72":5580,"Ġá»¯a":5581,"trÃ¡nh":5582,"UNG":5583,"Ġtro":5584,"Ġtáº»":5585,"ĠGÆ¡":5586,"ĠCá»§A":5587,"Pi":5588,"ın":5589,"ĠXt":5590,"Ġ81":5591,"ĠtÆ°Æ¡i":5592,"ĠLeipzig":5593,"Ġ1960":5594,"Cu":5595,"ĠchÃ¨":5596,"ĠÆ°á»Ł":5597,"uynh":5598,"ons":5599,"ĠKINH":5600,"TÃ¢y":5601,"ĠdÃłn":5602,"Ġxá»Ļn":5603,"Ġhá»ıa":5604,"ĠKHO":5605,"ĠcÃłn":5606,"ĠStÃºt":5607,"ThÃłnh":5608,"ĠbÃ¬":5609,"ĠxÆ°á»Ľng":5610,"ĠPra":5611,"uá»Ŀn":5612,"Ġnhá»¡n":5613,"cker":5614,"XÃ¢y":5615,"ĠSlÃª":5616,"ĠCHÃŃNH":5617,"Má»¥c":5618,"bÃ´n":5619,"Ġlá»£n":5620,"lá»ĩnh":5621,"Vin":5622,"ĠCÃ¢u":5623,"ĠEconom":5624,"ĠMuyn":5625,"Ġ1901":5626,"ĠcÃł":5627,"tiá»ĩn":5628,"Ġviá»ĩt":5629,"Ġ1959":5630,"cá»ķ":5631,"Ġháº£o":5632,"Ġpha":5633,"ĠCÃ¡p":5634,"pho":5635,"náº¯m":5636,"ĠDu":5637,"TÄĥng":5638,"ĠÆ¡i":5639,"ĠgiÃły":5640,"Ġkhoai":5641,"ĠSozialdemokrat":5642,"ĠMar":5643,"ĠHÃ¡c":5644,"kÃŃch":5645,"Ġnháº£m":5646,"thá»¥ng":5647,"nghÄ©":5648,"Bá»įn":5649,"Quy":5650,"ĠPhoi":5651,"ĠMiÃªn":5652,"sÃªvÃŃch":5653,"Há»Ĭ":5654,"¡i":5655,"ĠXÃ©t":5656,"há»¡nh":5657,"Ġngáº§m":5658,"ĠTháºŃm":5659,"Ges":5660,"Ġláº§y":5661,"rier":5662,"riti":5663,"Ġ..":5664,"ĠbÃ³i":5665,"ĠKáº»":5666,"go":5667,"Ġáº§m":5668,"Ġtá»Łm":5669,"ĠHuy":5670,"sá»Ńa":5671,"tÆ°á»Ľng":5672,"Ġ/":5673,"ĠThÃŃ":5674,"ĠLÃ´ng":5675,"bÃ´":5676,"Ġá»¦":5677,"ÃĶNG":5678,"ÄĲá»ģ":5679,"ĠkhoÃ¡c":5680,"ĠBá»ĵ":5681,"SL":5682,"ĠHoáº·c":5683,"ngÃ¢n":5684,"nghá»ģ":5685,"Ġtráº§m":5686,"ĠNÃºi":5687,"Ġnghá»¡n":5688,"Ġ125":5689,"ĠhÃ©cta":5690,"ĠAbteilung":5691,"kiÃªn":5692,"Ġáº¿ch":5693,"nguyá»ĩn":5694,"ĠliÃªm":5695,"Ġrá»±c":5696,"Ġtrá»įt":5697,"cÅ©n":5698,"ĠvÃ£":5699,"ÄĳoÃ³c":5700,"á»Ľp":5701,"ĠNews":5702,"Ġby":5703,"ĠÄĲÃ¡c":5704,"ĠÄĤngghen":5705,"ĠlÆ°á»¡i":5706,"1945":5707,"sáº¯c":5708,"Ġbá»ĳc":5709,"Ġmá»ĭ":5710,"ÄĲuy":5711,"thÃºc":5712,"Ġ140":5713,"CÃ¹ng":5714,"Ha":5715,"ĠTáº¬P":5716,"Ġmá»Ľ":5717,"á»³c":5718,"tá»¥i":5719,".....":5720,"Ġthuá»Ŀ":5721,"khá»ĳp":5722,"Ġ168":5723,"lá»ĳi":5724,"ĠÄĲÆ°á»£c":5725,"Ġtá»ıch":5726,"há»ıi":5727,"ĠxÆ°Æ¡ng":5728,"ĠDuy":5729,"ráº¿t":5730,"Ġlá»įc":5731,"ĠDeutsche":5732,"sung":5733,"ster":5734,"Chá»³ng":5735,"hÃ£y":5736,"ĠTÃłu":5737,"ĠAus":5738,"ĠlÃłn":5739,"chá»«ng":5740,"ĠHAI":5741,"ĠSti":5742,"Tráº£":5743,"Ġchá»³a":5744,"ĠTÃŃch":5745,"ĠXim":5746,"73":5747,"nai":5748,"ĠthiÃªng":5749,"Ġ1903":5750,"IX":5751,"á»µ":5752,"ches":5753,"Ġnghiá»Ŀm":5754,"Ġkhá»ĳ":5755,"ÄĳrÃŃt":5756,"phÃ¡n":5757,"ThÃ¢n":5758,"cÅ©":5759,"ngÃ´n":5760,"ĠdoÃ³c":5761,"Ġxoay":5762,"Ġbá»±":5763,"ĠLáº½":5764,"uá»ĵi":5765,"ĠNÃ¢ng":5766,"ry":5767,"lÃ¢u":5768,"rá»Ŀ":5769,"Ġchiáº¿t":5770,"ĠTÃ´n":5771,"Ġngoáº·t":5772,"Bi":5773,"ny":5774,"Ġthá»ĳn":5775,"ĠÄĲá»Ŀi":5776,"Ġláº©n":5777,"ĠkiÃªm":5778,"Ġá»Ĺ":5779,"ĠSvai":5780,"Ngh":5781,"Ġbáº¹p":5782,"Ġchuyá»Ŀn":5783,"Ġtrá»ħ":5784,"ÄĲa":5785,"tá»·":5786,"áºłI":5787,".;":5788,"Ġbáº¿":5789,"DÃ¢n":5790,"Kinh":5791,"rá»Ľt":5792,"ĠUá»ĳc":5793,"Ġthoá»ıt":5794,"dá»±a":5795,"gÃ¡t":5796,"táº¥n":5797,"Ġlung":5798,"stÃ¡t":5799,"oad":5800,"ĠGiá»¥n":5801,"dÃª":5802,"máºŃt":5803,"ĠlÄĥng":5804,"ĠNinh":5805,"Ġtháº¥u":5806,"Ġ115":5807,"Ġká»Ŀu":5808,"Ġná»±c":5809,"Äĳd":5810,"od":5811,"ĠTáº¡p":5812,"ĠkhÃºc":5813,"loso":5814,"thÃ´i":5815,"ĠÆł":5816,"Ġcá»Ńu":5817,"ĠLá»£i":5818,"ĠPark":5819,"cle":5820,"ká»¹":5821,"nhá»Ŀ":5822,"Ġpháº¿":5823,"ÄĳÃ©t":5824,"Phri":5825,"Ġnháº·t":5826,"Ã¨o":5827,"ĠLÆ°Æ¡ng":5828,"ÄĲoÃłn":5829,"Ġ83":5830,"Má»Ĺi":5831,"máº¥y":5832,"vÃ©c":5833,"ĠlÃ²":5834,"Ġtráº¡m":5835,"á»±u":5836,"ĠCoÃ³c":5837,"Ġtrá»įn":5838,"DÃ¹":5839,"Diá»ħn":5840,"MÃ¡t":5841,"pond":5842,"Ġthá»³":5843,"ĠXá»Ļc":5844,"Ġrá»Ĺi":5845,"Báº¡n":5846,"khÃŃ":5847,"pp":5848,"ĠXtÃ´":5849,"Ġbá»ķn":5850,"Ġ1965":5851,"ĠdÃ¡ng":5852,"Cháº³ng":5853,"Ġtrá»ınh":5854,"ĠtÃŃ":5855,"ĠSá»ıc":5856,"ĠÃŃ":5857,"Ġuá»ĳn":5858,"onomie":5859,"71":5860,"phÃ©p":5861,"Ġgiá»¥c":5862,"Ġtiá»ĩc":5863,"Ġváº¥p":5864,"elle":5865,"ĠNGHá»Ĭ":5866,"ĠÄĳÃŃnh":5867,"VÃło":5868,"ĠPhÃº":5869,"PhÆ°Æ¡ng":5870,"1864":5871,"Ġ93":5872,"1809":5873,"?)":5874,"gÃ³p":5875,"ĩch":5876,"ĠsÃ¢n":5877,"Ġro":5878,"ĠlÃ©o":5879,"Ġmuá»ĳi":5880,"ĠuÃµ":5881,"Ġ1904":5882,"á»ħng":5883,"mer":5884,"ĠCáº¥p":5885,"ĠSÃ¡p":5886,"Ġ84":5887,"ĠdÆ°á»£c":5888,"Ġyá»ģ":5889,"ĠTra":5890,"áº¹t":5891,"Ġetc":5892,"táº§ng":5893,"ĠÃµm":5894,"raph":5895,"rincip":5896,"ĠKHOA":5897,"bÃłn":5898,"ĠliÃªng":5899,"Ġbáº£ng":5900,"Ġbáº¿n":5901,"Ġbá»Ĺng":5902,"Ġ105":5903,"Ġtrá»Ļi":5904,"ĠdÃło":5905,"Ġhá»©ng":5906,"ĠÄĲáº¥u":5907,"ĠXII":5908,"chichte":5909,"TÆ¡":5910,"ĠvÃ¢n":5911,"Ġrá»§a":5912,"Äĳrá»Ľch":5913,"Ġngáº·t":5914,"ÄĳÃµy":5915,"Ġtrá»£n":5916,"vie":5917,"Ġbuá»¥n":5918,"Äĳan":5919,"ĠphÃ¬":5920,"Ġ1957":5921,"Ġ82":5922,"ĠcÃ¡m":5923,"ĠÄĳuÃ´i":5924,"ĠThá»ĳng":5925,"bá»ķ":5926,"hr":5927,"rom":5928,"ĠBren":5929,"náº·ng":5930,"rau":5931,"ĠOa":5932,"Bau":5933,"Ġxen":5934,"ĠDritte":5935,"tionale":5936,"BÃ¬nh":5937,"ĠTÆ¯á»":5938,"1861":5939,"pá»¥n":5940,"sÃ¢u":5941,"ná»Ńa":5942,"ĠchÃ³":5943,"ĠlÆ¡":5944,"Ġthen":5945,"volution":5946,"ler":5947,"Cá»¥":5948,"mÃ©t":5949,"háºŃu":5950,"ĠHÃłng":5951,"bá»ĩnh":5952,"ĠPhá»§":5953,"sÃ©p":5954,"ĠEm":5955,"tsÆ¡":5956,"ĠJahrb":5957,"nÃªu":5958,"Ġ117":5959,"Bá»©c":5960,"ÃĬN":5961,"Äĳanh":5962,"Ġ1834":5963,"Ġ1900":5964,"ĠUn":5965,"ĠGiao":5966,"Ġá»ĩt":5967,"MÃ´":5968,"din":5969,"lÃ©t":5970,"Ġcá»ın":5971,"Ġ94":5972,"BÃŃ":5973,"banh":5974,"Ġgá»ıi":5975,"ŀNG":5976,"nhi":5977,"Ġmá»ģ":5978,"Ġ156":5979,"cáº¡nh":5980,"CHÆ¯ÆłNG":5981,"sÃ©c":5982,"ĠkhÃ¡m":5983,"ĠCla":5984,"ĠGiu":5985,"trá»Ŀn":5986,"kÃ½":5987,"Ġtreo":5988,"Ġ1958":5989,"pital":5990,"ĠTHÃģNH":5991,"ĠPost":5992,"cÃ¢u":5993,"má»ĳp":5994,"Ġlanh":5995,"Ġ92":5996,"cÃ¡":5997,"ĠKen":5998,"liste":5999,"Ġ106":6000,"LÃŃp":6001,"Ġbáº©y":6002,"Ġthá»ģ":6003,"á»¹cher":6004,"ĠPháº¡m":6005,"Ġ450":6006,"Ġ91":6007,"122":6008,"ĠmÃłng":6009,".âĢĵ":6010,"Ga":6011,"Ġbo":6012,"ĠCor":6013,"ĠRoad":6014,"170":6015,"bri":6016,"Ġyá»Ŀn":6017,"1859":6018,"sches":6019,"dition":6020,"ĠStiáº¿c":6021,"rÃ´ng":6022,"vÅ©":6023,"á»ĻI":6024,"ĠBuá»ĳc":6025,"Ġ202":6026,"tÆ°á»Ľc":6027,"Ġchá»³t":6028,"thÃ¹":6029,"Ġ149":6030,"áº¤T":6031,"Ġdá»Ł":6032,"Ġ119":6033,"ĠdÃ²":6034,"Ġ96":6035,"ĠTRá»ĭ":6036,"láº¯c":6037,"ĠNgoáº¡i":6038,"phrÃŃt":6039,"ĠmÅ©":6040,"ĠNÃº":6041,"ĠLU":6042,"1814":6043,"Ġthoáº£ng":6044,"dá»¥":6045,"ĠdÃ£y":6046,"Ġchá»Ńi":6047,"uá»ĩ":6048,"Ġ1837":6049,"cÃ´n":6050,"Ġlá»įt":6051,"Ġ109":6052,"ĠtÃª":6053,"uar":6054,"vrá»ĳp":6055,"Ġ159":6056,"ĠQuáº£":6057,"ĠFri":6058,"Ġá»¦y":6059,"LÃºc":6060,"Ġtrá»±":6061,"ĠTHá»¨":6062,"ist":6063,"láº§m":6064,"ĠxÆ¡":6065,"Ġrau":6066,"ĠGiÃªm":6067,"ze":6068,"Ġcom":6069,"ĠPhan":6070,"ssocia":6071,"ChÃŃ":6072,"ıo":6073,"má»¥ng":6074,"áº¦N":6075,"tá»ı":6076,"Ġthá»ĳi":6077,"Ġqui":6078,"ĠRo":6079,"á»¥m":6080,"Ġ209":6081,"1808":6082,"TÃłi":6083,"īu":6084,"Ġá»įc":6085,".),":6086,"Ġká»Ļm":6087,"ĠCo":6088,"ĠSoÃ³c":6089,"Ġ700":6090,"Thanh":6091,"Ġ104":6092,"Ġ112":6093,"Ġ113":6094,"ĠVla":6095,"150":6096,"lá»ĳt":6097,"NÃ´ng":6098,"phe":6099,"Ġsá»ıu":6100,"dÃµn":6101,"Ġ1835":6102,"uá»Ĺi":6103,"ĠThi":6104,"ĠStar":6105,"ĺC":6106,"Ġcáº¡n":6107,"Ġá»§i":6108,"Ġ143":6109,"Ġ222":6110,"ĠYÃªn":6111,"máº¯t":6112,"ĠÄĳáº¡p":6113,"Ġhuyá»ģn":6114,"ĠÄĳá»įng":6115,"Ġxáº¡":6116,"ĠGhÃ©c":6117,"Ġ1924":6118,"ey":6119,"por":6120,"Ġthiá»Ŀn":6121,"ĠÄĲÃºng":6122,"dÆ°á»¡ng":6123,"ngÅ©":6124,"gue":6125,"tÃ¡n":6126,"Ġbá»«a":6127,"Ġ1836":6128,"ĠThÆ°Æ¡ng":6129,"Ġáº¤n":6130,"ĠlÆ°á»Ŀng":6131,"Ġchuá»Ļng":6132,"Ġ183":6133,"Ġ1911":6134,"ghin":6135,"phá»ķ":6136,"respond":6137,"ĠgiáºŃt":6138,"Ġ1833":6139,"ĠGoÃ³c":6140,"CÆ°Æ¡ng":6141,"eople":6142,"ĠRai":6143,"ngá»«ng":6144,"ĠvÆ¡":6145,"ĠngÃ£":6146,"all":6147,"ĠmÃµu":6148,"ĠPhÃ¢n":6149,"ĠLuy":6150,"ĠNháºŃn":6151,"Ġsocia":6152,"mus":6153,"ĠsÆ°u":6154,"1842":6155,"xta":6156,"ting":6157,"Ġ135":6158,"Ġngáº¡ch":6159,"ĠNá»":6160,"ĠÄĲÄĥng":6161,"ĠtÃ¢n":6162,"Ãµng":6163,"Ġkhá»ĳc":6164,"Ġgiá»ım":6165,"ONG":6166,"Ġnhiá»ħm":6167,"Ġthá»Ł":6168,"ĠhuÃµn":6169,"vá»¡":6170,"Xa":6171,"ĠnÃłng":6172,"ÄĲÄĥng":6173,"Ġhá»¥t":6174,"ĠoÃłn":6175,"Æ°á»Ľn":6176,"ĠTá»·":6177,"ĠsÃ¹ng":6178,"ĠBáº¡n":6179,"ĠLin":6180,"Ġ1916":6181,"Ġngá»¥c":6182,"Ġ121":6183,"ĠCá»©u":6184,"view":6185,"pun":6186,"ĠLá»±c":6187,"ĠGri":6188,"Ġ270":6189,"Ġnhá»¯":6190,"Xanh":6191,"fa":6192,"§i":6193,"Ġliá»ģu":6194,"ĠPá»Ļt":6195,"phoÃ³c":6196,"á»Ľm":6197,"Ġá»ıo":6198,"ĠHá»Ĩ":6199,"Ġ144":6200,"Ġcá»«u":6201,"gáº¯ng":6202,"74":6203,"TÃ³m":6204,"Ġ1954":6205,"Ġtá»ĳng":6206,"ĠTÆ¯á»ŀNG":6207,"má»ĳi":6208,"......":6209,"ĠNháº¥t":6210,"bÃ´ng":6211,"Ġmanh":6212,"PhÃ³":6213,"Ro":6214,"kÃ©o":6215,"san":6216,"á»ĩt":6217,"Ġngáº¡n":6218,"Ġá»£c":6219,"En":6220,"báº¡i":6221,"xÃ³":6222,"Ġmáº£y":6223,"xoa":6224,"zeitung":6225,"Ġáº£i":6226,"ĠhÆ°u":6227,"Ġchá»£":6228,"1855":6229,"Rheinische":6230,"for":6231,"Ġbá»įc":6232,"Ġ247":6233,"Die":6234,"Ġvá»ı":6235,"ÄĲáº¿n":6236,"ĠDÃĤN":6237,"litÃ©":6238,"Quan":6239,"Chi":6240,"Ġcáº·n":6241,"ĠTháº¯ng":6242,"AM":6243,"Cáº£":6244,"TR":6245,"chÃ¢n":6246,"ghÃ©c":6247,"triáº¿t":6248,"Ġ101":6249,"Ġ154":6250,"Ġ145":6251,"lum":6252,"1805":6253,"chÃ³ng":6254,"liá»ĩt":6255,"ĠÄĲÃ¡ng":6256,"ĠMe":6257,"Ġ1945":6258,"Ġ103":6259,"ĠAuf":6260,"burg":6261,"hÃ¨o":6262,"Äĳri":6263,"ĠhÃ²i":6264,"Ġ122":6265,"ĠsÃµu":6266,"tháº¥p":6267,"tá»Ń":6268,"ĠKhá»ĳi":6269,"ĠtrÆ°a":6270,"Ġ([":6271,"trÃ²":6272,"London":6273,"TT":6274,"ĥM":6275,"Giá»Ŀ":6276,"ton":6277,"ĠÄĳáº«m":6278,"Ġis":6279,"ĠÅ©ng":6280,"ĠbuÃ´ng":6281,"Ġthá»īu":6282,"ĠHÃ©t":6283,"Ġou":6284,"rá»Ľch":6285,"Ġvin":6286,"ĠNgÃ´":6287,"ĠkhiÃªm":6288,"Ġ107":6289,"ĠCHIáº¾N":6290,"ĠmiÃªu":6291,"ĠrÃ²ng":6292,"emokrati":6293,"Tiá»ģn":6294,"Ġdinh":6295,"Ġ1961":6296,"ĠbÃ¡i":6297,"ĠNá»ģn":6298,"Ġal":6299,"thuáº§n":6300,"ĠnhÃŃ":6301,"áº¡I":6302,"Ġ127":6303,"ree":6304,"xáº£y":6305,"ĠÃºc":6306,"ĠthÄĥng":6307,"Ġgiá»ģng":6308,"Ġtá»ģ":6309,"Ġphá»±":6310,"1858":6311,"Ġrá»ħ":6312,"85":6313,"mÃ©c":6314,"Ġmáº§m":6315,"ĠDas":6316,"ĠRá»ĵi":6317,"Ġáº¥u":6318,"ĠÄĲá»ķi":6319,"kháº³ng":6320,"losoph":6321,"ĠdáºŃp":6322,"Ġsá»¯a":6323,"Ġ1946":6324,"1873":6325,"Ġmáº¯n":6326,"ĠComm":6327,"thuáº«n":6328,"láº¡c":6329,"99":6330,"hÃ¡c":6331,"nghÃ¨o":6332,"khuynh":6333,"Ġ162":6334,"ĠchiÃªu":6335,"Ká»³":6336,"ĠNÃ´":6337,"Ġ231":6338,"ĠDeutsch":6339,"ĠdÃŃnh":6340,"lÃ©c":6341,"ĠáºŃp":6342,"Ġbia":6343,"ĠPá»Ŀ":6344,"Ġá»ĩp":6345,"ĠXÃ¡c":6346,"ĠGiáº£":6347,"eld":6348,"bá»Ļc":6349,"Ġiáº¿":6350,"Ġtháº±ng":6351,"Ġphá»ī":6352,"Ġcá»ınh":6353,"Nhiá»ģu":6354,"Ġ124":6355,"Ġ116":6356,"ĠSai":6357,"Ġ241":6358,"bang":6359,"Ġthá»ķi":6360,"Ġ1821":6361,".........":6362,"Ġká»Ľnh":6363,"1840":6364,"tiu":6365,"tiáº¿t":6366,"Ġve":6367,"ĠtrÃºt":6368,"Ġ175":6369,"Ġ165":6370,"Ġ142":6371,"Ġáº¿p":6372,"Lá»":6373,"ĺNG":6374,"trÃ¡i":6375,"eutsche":6376,"Lá»ĭch":6377,"Ġtháº¡o":6378,"Ġ1838":6379,"Ġ219":6380,"83":6381,"BÃłn":6382,"su":6383,"..........":6384,"xÃ¢m":6385,"Ġham":6386,"Ġpo":6387,"ĠHá»¯u":6388,"Ġáº¡c":6389,"Ġxiá»ģng":6390,"Ġ114":6391,".......":6392,"Ġphá»³c":6393,"Ġgá»£i":6394,"1830":6395,"Ġ1909":6396,"ChÃºc":6397,"Hu":6398,"vÆ°á»£t":6399,"ÄĳÆ°Æ¡ng":6400,"Äĳáº³ng":6401,"Ġnhuáº§n":6402,"KÃŃnh":6403,"xra":6404,"Ġuá»Ļc":6405,"ĠÄĳáº§":6406,"ĠÄĲáº£":6407,"ĠKa":6408,"khuyáº¿t":6409,"giÃ¡c":6410,"Ġ161":6411,"Há»¡i":6412,"Báº±ng":6413,"IN":6414,"Ġbu":6415,"Ġ230":6416,"Ġnhá»įc":6417,"%;":6418,"ĠÄĳÃ¹a":6419,"Ġkiá»Ŀn":6420,"ChÃło":6421,"THÆ¯":6422,"Au":6423,"xÄĥm":6424,"ance":6425,"Ġkhuáº¥t":6426,"1851":6427,"ald":6428,"ĠhÃ¡":6429,"Ġthá»Ľ":6430,"ĠxÃ³m":6431,"ĠÄĲÃµy":6432,"ĠNguá»ĵn":6433,"ĠcÆ¡m":6434,"Ġ1933":6435,"Ġ172":6436,"usti":6437,"khan":6438,"vá»ĳn":6439,"Ġmuá»ĵi":6440,"Ġmá»ĵ":6441,"Ġmá»ģm":6442,"Ġ217":6443,"gie":6444,"toÃ¡n":6445,"ĠquÃ¡c":6446,"ĠrÃło":6447,"Ġ118":6448,"400":6449,"vong":6450,"Ġ123":6451,"Cháº¿":6452,"Ġtrá»Ļm":6453,"ĠMáº¯c":6454,"toan":6455,"ĠHÄĥng":6456,"Ġ1832":6457,"ĠGra":6458,"Äĳá»įc":6459,"háº§u":6460,"nhÆ¡":6461,"Ġ321":6462,"ĠKarl":6463,"...)":6464,"ÄĤM":6465,"Ġá»¹ber":6466,"Ġlong":6467,"Ġnhiá»Ŀu":6468,"ĠÄĲoáº¡n":6469,"PHáº¥":6470,"ĠClÃºt":6471,"Ġxá»ı":6472,"ĠGen":6473,"Ġ1789":6474,"ĠmÃ£nh":6475,"Ġxáº©y":6476,"ThÆ°á»Ŀng":6477,"Ġ108":6478,"Ġ134":6479,"thuÃª":6480,"ÃĤu":6481,"ari":6482,"uni":6483,"Ġgá»Ļp":6484,"Ġ228":6485,"Thá»ķ":6486,"ĠXan":6487,"alth":6488,"Uá»ĺC":6489,"ĠHáº¯c":6490,"Ġ158":6491,"khá»ķ":6492,"nguy":6493,"ĠnghiÃªng":6494,"Ġ216":6495,"1846":6496,"pÃ©c":6497,"1946":6498,"Ġ138":6499,"Má»įi":6500,"ĠlÃ¡ng":6501,"ĠnhÃµ":6502,"Ġkiá»ģm":6503,"ĠVÄ©nh":6504,"................................................................":6505,"Ġ128":6506,"Ġ240":6507,"teur":6508,"ĠphÃ¡c":6509,"ĠchÃ©":6510,"galitÃ©":6511,"Ġ139":6512,"ĠÄĳáº§m":6513,"Ġbáº»":6514,"Ġ204":6515,"Ġ226":6516,"ĠNghÄ©a":6517,"..............":6518,"po":6519,"wei":6520,"Ġkáº¹p":6521,"Ġ153":6522,"ĠBri":6523,"Ġ1898":6524,"Ġ267":6525,"Quyáº¿t":6526,"vua":6527,"ĠHÃłnh":6528,"Ġ350":6529,"Ġ192":6530,"ĠkhoÃ¡ng":6531,"Ġ176":6532,"Ġ164":6533,"ĠQuáº£n":6534,"Ġver":6535,"Ġbáº±":6536,"xten":6537,"Ġ137":6538,"Ġ399":6539,"tter":6540,"ĠbÃ©n":6541,"Ġngáº¡o":6542,"Ġroi":6543,"ĠRáº¥t":6544,"ral":6545,"Phran":6546,"efor":6547,"Phá»ıp":6548,"ĠInternational":6549,"Ġmo":6550,"Báº¿ch":6551,"St":6552,"XmÃŃt":6553,"Ġnáº¥u":6554,"ĠCuá»ĳn":6555,"ÄĤN":6556,"Iáº¥N":6557,"ĠlÃºt":6558,"1862":6559,"xpia":6560,"HÃª":6561,"cÃ¡nh":6562,"rie":6563,"Ġnháº¡t":6564,"ĠTÄ©nh":6565,"ĠMáº¥y":6566,"NháºŃn":6567,"ĠHoáº¡t":6568,"edrich":6569,"Khoáº£ng":6570,"Ġáº»":6571,"Ġxáº£o":6572,"dáº§n":6573,"ĠchÃª":6574,"ĠÄĳÃłnh":6575,"¢y":6576,"ĠtrÃ³i":6577,"Ġá»¥i":6578,"Ġ1962":6579,"ssociation":6580,"des":6581,"he":6582,"vá»Ľc":6583,"ĠvÃµy":6584,"Ġnha":6585,"1854":6586,"Ġ345":6587,"ĠThay":6588,"thá»£":6589,"Ġ152":6590,"ĠOen":6591,"hy":6592,"Ġmáº»":6593,"1818":6594,"Ġrá»ĵ":6595,"Ġ131":6596,".............":6597,"ngÄĥn":6598,"ĠgÃ£":6599,"Äĳáº¥y":6600,"Ġtá»±y":6601,"king":6602,"Ġ287":6603,"Gesamtausgabe":6604,"300":6605,"Ġngoáº·c":6606,"Hung":6607,"Ġphiá»Ŀn":6608,"ĠCom":6609,"...........":6610,"Äĳá»¡":6611,"Ġein":6612,"suy":6613,"ĠgÆ°":6614,"Ġ268":6615,"ĠBriefe":6616,"ĠThÃªm":6617,"ĠBÃ´n":6618,"ĠPÃ©c":6619,"ĠchÆ°á»Ľc":6620,"ĠxÃµm":6621,"ĠkhÆ¡i":6622,"ĠMÃ¢y":6623,"Ġ1955":6624,"Cháº¥p":6625,"treet":6626,"bÃły":6627,"Ġiá»":6628,"Ġngá»¥i":6629,"ĠLáºŃp":6630,"Ġtháº»":6631,"Ġhá»ħ":6632,"Ġ280":6633,"ĠXXX":6634,"Ġvá»įt":6635,"Ġ218":6636,"Ġ323":6637,"Ġ206":6638,"Ġ182":6639,"Ġ1828":6640,"xcá»ĳp":6641,"Ġhá»©":6642,"ess":6643,"Vá»¡":6644,"BÃł":6645,"Ġmá»Ļc":6646,"ĠStÆ¡":6647,"Ġ236":6648,"Ġ481":6649,"ction":6650,"kiá»ĥu":6651,"ĠxÃºi":6652,"Ġ1980":6653,"Ġ235":6654,"rÃ©t":6655,"xmÃ´n":6656,"áº¿T":6657,"Ġge":6658,"ĠSÄĳd":6659,"hoa":6660,"vrÆ¡":6661,"Ġmá»Ļng":6662,"lich":6663,"Ġ129":6664,"LÃ¡t":6665,"há»ĵi":6666,"Ġme":6667,"ĠSu":6668,"Tiáº¿ng":6669,"háº¡i":6670,"nÆ°":6671,"1863":6672,",...":6673,"uá»Ŀ":6674,"Ġ191":6675,"Ġ205":6676,"Ġ147":6677,"báº¿ch":6678,"¥p":6679,"ĠLá»Ŀ":6680,"ĠÄĳáº¿m":6681,"ĠnhÃ¡nh":6682,"Ġmáº§u":6683,"ĠBuy":6684,"Ġ319":6685,"Ġ148":6686,"ĠGiá»Ľi":6687,"1856":6688,"ĠEng":6689,"sto":6690,"tum":6691,"ĠWo":6692,"Ġ2005":6693,"ky":6694,"ĠpÃ´n":6695,"Ġ(!)":6696,"ĠIb":6697,"Ġ193":6698,"Ġ203":6699,"ĠQuang":6700,"Ġquá»Ŀn":6701,"ĠÄĲÃº":6702,"1810":6703,"1804":6704,"ĠReview":6705,"tá»ĳ":6706,"ĠTÃ³m":6707,"ĠRÃª":6708,"Ġung":6709,"Ġsoi":6710,"Ġkhao":6711,"Ġ213":6712,"Ġghen":6713,"ĠlÃ¢n":6714,"ĠlÃ¡o":6715,"ĠbÃ¡ng":6716,"Ġ.-":6717,"Ġ239":6718,"Ġyá»ĥm":6719,"il":6720,"Ġ220":6721,"98":6722,"hÃ´m":6723,"Ġuáº¥":6724,"Ġtuáº¿ch":6725,"ĠXIV":6726,"94":6727,"port":6728,"tá»Ļi":6729,"ĠchÆ°":6730,"ĠTsÃ©c":6731,"Ġ212":6732,"Ġvá»¥n":6733,"Lao":6734,"bÃ©t":6735,"Ġsáº»":6736,"Phráº¿t":6737,"boÃ³c":6738,"nam":6739,"Ġcá»ĳi":6740,"Ġthiá»ĥn":6741,"Ġ229":6742,"Ġ264":6743,"HÆ¡n":6744,"blin":6745,"vÃłng":6746,"Ġthá»ĳt":6747,"CÃ¡n":6748,"Ráº¥t":6749,"far":6750,"ĠTáº¥n":6751,"ĠHin":6752,"ĠHá»ĻI":6753,"ĠChá»«ng":6754,"Ġ1897":6755,"1797":6756,"má»Ľt":6757,"song":6758,"ĠchiÃªm":6759,"ÄĲáº§u":6760,"tus":6761,"...............":6762,"Mong":6763,"xung":6764,"ĠlÃ¡nh":6765,"ĠÄĳá»Ľn":6766,"Ġ126":6767,"ĠCá»§ng":6768,"Ġ278":6769,"ngÆ°á»£c":6770,"ĠNÄĤM":6771,"Ġ1813":6772,"ĠKiÃªn":6773,"ĠMÃ¡txcÆ¡":6774,"Cam":6775,"ĠÄĲÆ°á»Ŀng":6776,"Ġ333":6777,"eil":6778,"ĠÃĶn":6779,"ĠPhÃºc":6780,"Ġá»ĵng":6781,"ĠMay":6782,"Ġ174":6783,"Ġ288":6784,"NÃ³":6785,"ĠhÃ³":6786,"ĠIa":6787,"AO":6788,"voa":6789,"Ġhá»¥n":6790,"kháº¯p":6791,"Ġ249":6792,"Bá»Łi":6793,"ĠlÆ°á»Ŀi":6794,"Ġnháº¡o":6795,"ĠthÃ¡o":6796,"Ġgáº·t":6797,"ĠHÃ²a":6798,"ring":6799,"Ġ271":6800,"dit":6801,"ustice":6802,"ĠtÃł":6803,"ĠmÆ°á»Ľn":6804,"Ġ1812":6805,"sten":6806,"1895":6807,"HÃ¬nh":6808,"sÃ´ng":6809,"Ġ195":6810,"1820":6811,"Ġngá»Ļt":6812,"ĠAm":6813,"1853":6814,"Táº¡p":6815,"ĠtrÃ´i":6816,"Ġmá»įc":6817,"Ġ1932":6818,"Ġ282":6819,"ĠStaats":6820,"ĠGeschichte":6821,"Ġnhá»Ł":6822,"Ġngai":6823,"1860":6824,"Ġ358":6825,"gáº¯n":6826,"pÃª":6827,"ĠNhÃ³m":6828,"Ãµi":6829,"Ġkhoe":6830,"ĠÄĳoá»ın":6831,"Thá»¥y":6832,"á»ŃI":6833,"Ãĥ":6834,"Ġdáº¯t":6835,"ĠMá»¥":6836,"Ġyáº¿":6837,"ĠXU":6838,"120":6839,"bÃ¢y":6840,"crÃŃt":6841,"Ġtá»³y":6842,"Ġ311":6843,"quyá»ĥn":6844,"lage":6845,"Ġnáº¯n":6846,"ĠVÅ©":6847,"ĠhÃ¢n":6848,"TrÆ°á»Ŀng":6849,"Ġ201":6850,"kÃ©m":6851,"Ġniá»Ŀn":6852,"ĠNHá»®NG":6853,"Ġ339":6854,"Ġ390":6855,"97":6856,"Tri":6857,"ÄĳÃ¢u":6858,"1847":6859,"chá»¯a":6860,"eleg":6861,"Ġ157":6862,"ac":6863,"tá»ĳi":6864,"Ġchá»¥p":6865,"ĠBran":6866,"ghe":6867,"Ġ1899":6868,"Ġáº©":6869,"Ġmáº©u":6870,"Ġgai":6871,"Ġriáº¿t":6872,"ĠTá»¥":6873,"ĠMong":6874,"ĠAr":6875,"ĠSe":6876,"Ġ307":6877,"ĠYÃªu":6878,"Gr":6879,"gÄĳa":6880,"tÃŃn":6881,"ĠBÃªn":6882,"ĠÄĲá»©ng":6883,"xtÃ©c":6884,"Ġ210":6885,"Ġ315":6886,"Ġ151":6887,"Ġ221":6888,"Ġ225":6889,"Pru":6890,"ĠxÃ´i":6891,"ĠLáº¡i":6892,"má»ĩnh":6893,"ĠÃłn":6894,"ĠmÃ¢y":6895,"Ġhiá»ģn":6896,"Ġráº¯n":6897,"cháºŃm":6898,"ĠPeople":6899,"Ġ314":6900,"Ġ325":6901,"pháº¥n":6902,"Ġ277":6903,"scher":6904,"Ġ136":6905,"Ġ232":6906,"ress":6907,"Bá»ıo":6908,"hÃ©t":6909,"Ġká»ģ":6910,"Ġchuá»Ĺi":6911,"ĠRiÃªng":6912,"ĠGiÃ©c":6913,"Ġ233":6914,"Cháº¯c":6915,"ĠÄĥm":6916,"áº¾T":6917,"Ġ310":6918,"Nha":6919,"Ġ260":6920,"HoÃłn":6921,"Ġcay":6922,"Ġná»³i":6923,"Há»ĺI":6924,"Ġsá»ınh":6925,"ĠBrai":6926,"Ġhá»ıc":6927,"ĠrÃł":6928,"ĠNhÃ":6929,"ĠtÃºm":6930,"Ġlá»ĳ":6931,"ĠdÃ¢ng":6932,"ĠÄĳá»³c":6933,"ÄĳÃło":6934,"ĠThá»ıi":6935,"Nhá»Ŀ":6936,"Sa":6937,"nhá»":6938,"Ġnháº¡y":6939,"Ġtrá»Ļn":6940,"Ã¬NH":6941,"ĠTriáº¿t":6942,"ĠTá»ª":6943,"ĠQuÃµn":6944,"nhÆ°á»£ng":6945,"ĠÄĲron":6946,"ĠNgÃ´n":6947,"uá»¥i":6948,"giÃ¡m":6949,"phá»ıt":6950,"ĠJahrbá»¹cher":6951,"ĠFriedrich":6952,"ĠmÃ¡t":6953,"Ġ301":6954,"grá»ıt":6955,"1882":6956,"Sá»°":6957,"GI":6958,"nÃ©p":6959,"ĠlÆ°á»¡ng":6960,"Ġnáº·n":6961,"Ġvá»¥ng":6962,"Ãºn":6963,"ĠVÄĤN":6964,"ĠKhuá»Ŀn":6965,"Ġ173":6966,"Æ¯U":6967,"ĠÄĲÃ¡nh":6968,"Ġ1956":6969,"Ġmá»±a":6970,"Gien":6971,"Ġ395":6972,"ĠPreu":6973,"dÃ´":6974,"Ġcau":6975,"Ġ194":6976,"elegraph":6977,"95":6978,"Ġhá»ĳn":6979,"ĠrÃ¡o":6980,"Ġlá»³a":6981,"Ġ133":6982,"Di":6983,"ĠvÃ¡c":6984,"Ġ163":6985,"ette":6986,"Gu":6987,"xlá»ĳp":6988,"ĠngÆ¡i":6989,"Ġdem":6990,"Ġ324":6991,"nghi":6992,"Ġ357":6993,"ĠÄĲiá»ĥm":6994,"Ġ331":6995,"1954":6996,"Ġ234":6997,"Ġ482":6998,"ĠtrÄ©":6999,"Ġ111":7000,"ĠCá»ıi":7001,"ĠQUY":7002,"Ġ291":7003,"ĠOÃºc":7004,"Va":7005,"ble":7006,"ĠhÆ°á»Ľc":7007,"Ġhá»±ng":7008,"Ġtá»įa":7009,"Ġmá»¥n":7010,"Ġquyá»ĩt":7011,"Ġ155":7012,"Ġfrom":7013,"Æ¯á»ľNG":7014,"náº±m":7015,"ĠÄĳáº·ng":7016,"Ġá»¡nh":7017,"ĠÄĲáº¾N":7018,"triá»ĩt":7019,"Ġ430":7020,"xtá»¥":7021,"Iáº¿":7022,"Ná»":7023,"PhÃ´":7024,"Tiá»ĥu":7025,"ngo":7026,"ĠlÃ¡t":7027,"Ġ337":7028,"ĠQUYá»ĤN":7029,"Ġtá»¥t":7030,"96":7031,"láº½":7032,"vÃ©t":7033,"Ġles":7034,"ĠmÃ¡":7035,"Äĳáº£o":7036,"ĠPo":7037,"ĠVá»Ľch":7038,"ĠHÃ¢y":7039,"ĠANH":7040,"Ġ367":7041,"Ġ1793":7042,"Ġnguyá»ģn":7043,"Ġron":7044,"orth":7045,"Ġ166":7046,"Ġ263":7047,"New":7048,"khÃ¡ch":7049,"Ġ167":7050,"Ġá»ĥu":7051,"Ġzu":7052,"toi":7053,"nhiá»Ŀn":7054,"Ġ318":7055,"Ġ259":7056,"Ġ224":7057,"ná»¯":7058,"meri":7059,"1881":7060,"ĠPresse":7061,"Bd":7062,"Ġná»Ŀ":7063,"ĠTráº£":7064,"Ġ534":7065,"Ġ132":7066,"Ġ243":7067,"Ġ223":7068,"ĠÄĳá»ım":7069,"NHá»®NG":7070,"Ġsur":7071,"Ġtang":7072,"1817":7073,"Ġinto":7074,"Ġ141":7075,"1878":7076,"mÃºt":7077,"Ġnuá»ĳt":7078,"Ġ313":7079,"ĠXIII":7080,"1815":7081,"xtá»ĳt":7082,"ory":7083,"Ġ237":7084,"TÃ¡c":7085,"ngang":7086,"Ġráº£i":7087,"Æ°á»Łi":7088,"ĠGH":7089,"Ġ526":7090,"ĠPolitical":7091,"sta":7092,"Ġ\"":7093,"Ġ316":7094,"fargue":7095,"Ġhá»¯n":7096,"cháº½":7097,"ĠTáº¿t":7098,"Ġ1820":7099,"Ġ550":7100,"ThÃ¡i":7101,"ĠVáº¡ch":7102,"Ġ330":7103,"Ġ445":7104,"nau":7105,"Ġsá»¥c":7106,"Ġ440":7107,"Ġ245":7108,"ĠGIÃģO":7109,"82":7110,"Hi":7111,"luyá»ĩn":7112,"áº£N":7113,"Ġnghá»ĭch":7114,"xtÃ¡p":7115,"Ġsoá»ıi":7116,"Ġ360":7117,"bÃ³c":7118,"cáº¥u":7119,"xvan":7120,"ĠgÃło":7121,"Äĳá»Ļt":7122,"ĠMA":7123,"Ġ279":7124,"alle":7125,"bá»ıo":7126,"Giá»¯a":7127,"Ġváº¥t":7128,"ĠmÃ¡nh":7129,"Ġluá»":7130,"Ġ306":7131,"khoÃ¡":7132,"losophie":7133,"93":7134,"Ġtá»Ļt":7135,"ĠvÄĥ":7136,"Ġnhen":7137,"ĠxÃ©":7138,"Ġ458":7139,"Ġ227":7140,"áº®T":7141,"mong":7142,"nhÃ¬n":7143,"ere":7144,"Ġ375":7145,"ĠNHÃĤN":7146,"Báº£o":7147,"mÃ¹a":7148,"Ġnd":7149,"ens":7150,"Ġ214":7151,"Ġ320":7152,"Ġ511":7153,"¤C":7154,"ĠtÅ©a":7155,"ĠBon":7156,"Ġ215":7157,"Ġ1934":7158,"Ġ354":7159,"gent":7160,"Iá»ĩN":7161,"tanh":7162,"Ġáº¿u":7163,"ĠcÃ¹":7164,"Ã¬a":7165,"trÃŃch":7166,"Ġ540":7167,"giáº£n":7168,"ĠOder":7169,"ĠWe":7170,"TÃŃnh":7171,"gáº·p":7172,"Ġláº¥p":7173,"ĠVáºŃn":7174,"ĠDiá»ħn":7175,"Ġ304":7176,"Ġ285":7177,"Ġ485":7178,"84":7179,"og":7180,"tháº³ng":7181,"Ġ493":7182,"PÃ´":7183,"buÃ´n":7184,"Ġchá»ı":7185,"Ġ513":7186,"Ġ435":7187,"Ġ454":7188,"ĠUyn":7189,"Quyá»ĥn":7190,"Ļc":7191,"ĠngÃ´":7192,"Ġ284":7193,"ĠGiá»¯a":7194,"ĠchÆ°á»Ľng":7195,"ĠBá»Ľ":7196,"Ġkhá»ıng":7197,"Ġ335":7198,"ĠThá»į":7199,"Ġ289":7200,"Ġ296":7201,"Ġ489":7202,"Ġmá»īa":7203,"áº¨":7204,"á»ĳC":7205,"Thu":7206,"Ġ171":7207,"hoáº¡i":7208,"Ġsáº¡n":7209,"Ġnguyá»ĩt":7210,"Ġ303":7211,"Ġ266":7212,"cion":7213,"bÃŃ":7214,"xÃŃp":7215,"Ġ439":7216,"Ġtoáº£":7217,"Ġ251":7218,"váº¡ch":7219,"quir":7220,"ĠquÃ¡ng":7221,"ĠBÆ°á»Ľc":7222,"Ġ181":7223,"lá»Ļt":7224,"Ġ327":7225,"0000":7226,"ĠRÃ©":7227,"Ġá»Ļp":7228,"Ġ361":7229,"Ġ388":7230,"phÃ¹":7231,"bÃ£i":7232,"Ġdá»Ĺ":7233,"1844":7234,"126":7235,"Ġkhá»ıch":7236,"Ġxoá»ı":7237,",-":7238,"vÃŃ":7239,"µm":7240,"Ġphri":7241,"ĠHam":7242,"Ġ317":7243,"ĠXtÃª":7244,"Ġ293":7245,"Ġ364":7246,"Ġ472":7247,"ÄĲÃª":7248,"Thay":7249,"Ġ2001":7250,"stitu":7251,"Rá»ĳt":7252,"ĠÄĳÆ°":7253,"ĠLiá»ĩu":7254,"Ġ552":7255,"Ġ242":7256,"ĠWor":7257,"Ġ486":7258,"ĠXXIV":7259,"Niu":7260,"Volk":7261,"ungen":7262,"ĠHÃ³":7263,"Ġ207":7264,"lus":7265,"CÃģC":7266,"VÃ´n":7267,"oáº¡t":7268,"ĠbÃ´i":7269,"ĠTáº®T":7270,"Ġlá»¡":7271,"khÃ¡":7272,"RI":7273,"pro":7274,"Ġtá»Ļ":7275,"á»ĭa":7276,"ĠLAI":7277,"á»ınh":7278,"Ġ431":7279,"Ġ308":7280,"Ġ244":7281,"Ġ246":7282,"Ġ286":7283,"Ġ290":7284,"Ġ405":7285,"Ġ371":7286,"ĠSá»©c":7287,"fur":7288,"Ġtrinh":7289,"Ġ510":7290,"Ġ453":7291,"Ġur":7292,"ļC":7293,"ĠrÃ¡c":7294,"thÆ°á»£ng":7295,"rinciples":7296,"lÃŃnh":7297,"ul":7298,"Ġthung":7299,"Ġthá»¥n":7300,"ĠLÆ¯U":7301,"Ġ460":7302,"rum":7303,"ĠQUÃĤN":7304,"háº¯n":7305,"son":7306,"Ġthai":7307,"Ġ512":7308,"Ġ379":7309,"Ġ387":7310,"81":7311,"Ġ326":7312,"Ġ438":7313,"ÄĲáº·c":7314,"Ġ650":7315,"Ġ373":7316,"Ġ353":7317,"ĠlÄĥm":7318,"tráº»":7319,"Ġkhoáº£nh":7320,"Ġtá»ıa":7321,"Ġ276":7322,"Tá»ĥM":7323,"cá»±ng":7324,"ĠnhÃłng":7325,"ĠNÆ¡i":7326,"Ġ1915":7327,"Ġ1896":7328,"Ġ281":7329,"Máº¥y":7330,"khÃŃch":7331,"Ġ261":7332,"Ġ502":7333,"Ġpri":7334,"Ġ539":7335,"Tháº¯ng":7336,"ĠTHá»ħNG":7337,"sh":7338,"Ġne":7339,"Ġká»ĳm":7340,"ĠÄĳá»¥":7341,"Ġ336":7342,"Ġ580":7343,"1822":7344,"Ġ256":7345,"Ġ377":7346,"Ġ356":7347,"**":7348,"117":7349,"XÃª":7350,"láº«n":7351,"phÃ¡o":7352,"Ġ416":7353,"ĠRefor":7354,"ĠBá»ĩnh":7355,"bach":7356,"ĠthÃ©t":7357,"ght":7358,"TrÃ¡i":7359,"ĠPress":7360,"ná»Ŀ":7361,"Ġchá»įi":7362,"ĠVá»ĭ":7363,"thiÃªn":7364,"Ġ448":7365,"1811":7366,"1831":7367,"khiáº¿n":7368,"ĠPhá»¥c":7369,"160":7370,"Æ¯á»¢":7371,"Ġtháº§m":7372,"Ġ455":7373,"giáº¥y":7374,"Ġ305":7375,"ĠCá»Ń":7376,"Ġ274":7377,"Ġ378":7378,"LÃł":7379,"ıa":7380,"Ġá»ħn":7381,"Ġ525":7382,"Ġgiá»ıc":7383,"Cháº¡p":7384,"cy":7385,"táº¡m":7386,"ĠÄĲÃł":7387,"Äĳiá»ĥn":7388,"Ġ340":7389,"Ġ424":7390,"Ġ436":7391,"1812":7392,"1931":7393,"ĠLá»ĩnh":7394,"Ġquáº¥y":7395,"Ġ1829":7396,"Ġ208":7397,"Ġ403":7398,"xÃ´n":7399,"Ġvá»Ĺ":7400,"ĠCá»ĳp":7401,"ĠAmeri":7402,"Ġ627":7403,"trá»ĵng":7404,"Ġ469":7405,"Ġbá»³t":7406,"130":7407,"Ġ477":7408,"PX":7409,"nguyá»Ŀn":7410,"109":7411,"Ġ490":7412,"Tá»±":7413,"tiá»ħn":7414,"Ġ),":7415,"Ġ427":7416,"Ġ265":7417,"Ġ369":7418,"Ġruá»Ļt":7419,"ĠÃ¢u":7420,"Ġchá»ĩch":7421,"Ġxay":7422,"Ġdá»įn":7423,"ĠlÃ£m":7424,"Ġ211":7425,"ĠGá»ŃI":7426,"Ġ520":7427,"Ġnhá»įn":7428,"bÃło":7429,"xca":7430,"ĠtÃ³c":7431,"Ġ341":7432,"ĠSram":7433,"Ġ537":7434,"107":7435,"Ġ297":7436,"hiá»ĥm":7437,"ĠlÃ¡i":7438,"Ġháº¥t":7439,"ĠMÃ©t":7440,"ĠHá»Ļc":7441,"Ġ283":7442,"ĠFrei":7443,"1879":7444,"Ġ470":7445,"ment":7446,"thoÃ¡t":7447,"ssenschaft":7448,"áº¨M":7449,"Em":7450,"Minh":7451,"kÃªu":7452,"ká»ĭp":7453,"ĠlÃµm":7454,"Ġsta":7455,"ĠpÃºt":7456,"ÄĲiá»ĩn":7457,"ĠDemokrat":7458,"ĠEin":7459,"Ġ258":7460,"hÃºt":7461,"Ġpu":7462,"ques":7463,"Ġtrá»ĭnh":7464,"106":7465,"86":7466,"Ġthá»į":7467,"Ġ641":7468,"ĠTá»ħN":7469,"Ġngá»įt":7470,"104":7471,"Ġ255":7472,"cháº¯n":7473,"ĠBA":7474,"ĠGháº¿t":7475,"ĠXXI":7476,"cÃºt":7477,"dÅ©ng":7478,"xcÃ´":7479,"Ġmá»ĳng":7480,"Ġngá»ı":7481,"Ġ334":7482,"Ġ523":7483,"Ġ415":7484,"Ġ420":7485,"1828":7486,"Ġ644":7487,"nghe":7488,"ding":7489,"Ġ491":7490,"Ġ................................................................................................":7491,"PXÃįCH":7492,"biá»ĥn":7493,"ĠbÃ©c":7494,"ĠnÃµng":7495,"phiÃªn":7496,"Ġ554":7497,"Ã¨re":7498,"Ġ501":7499,"Ġáº§n":7500,"ĠÄĳáº¡m":7501,"ĠbÃºc":7502,"Ġnáº¡":7503,"ÄĳÃłn":7504,"Ġ413":7505,"Ġ275":7506,"Ġ292":7507,"quiry":7508,"!).":7509,"ĠLinh":7510,"Ġ508":7511,"Ġ382":7512,"Hiá»ĩp":7513,"nÃ´n":7514,"Ġngá»±c":7515,"quanh":7516,"Ġráº¯m":7517,"Ġ355":7518,"Ġ380":7519,"Ġ473":7520,"Ġ569":7521,"BlÄĥng":7522,"báº¡o":7523,"svai":7524,"ĠlÃŃp":7525,"Ġchá»ĳn":7526,"Ġ530":7527,"Ġ146":7528,"Ġ294":7529,"tsáº¯c":7530,"Ġ374":7531,"?.":7532,"Ġchá»Ļp":7533,"tim":7534,"ĠGiang":7535,"Ġ254":7536,"Ġ507":7537,"Ġ567":7538,"Vá»¥":7539,"sp":7540,"Ġtháº£n":7541,"Ġ346":7542,"Ġ344":7543,"tháº©m":7544,"165":7545,"ĠSá»°":7546,"Báº£y":7547,"Ġtá»©":7548,"Äĳá»±ng":7549,"Ġ451":7550,"há»Ŀm":7551,"cáº§m":7552,"ocra":7553,"įr":7554,"Ġnáº¿":7555,"ĠTiá»ĩp":7556,"ĠSáº½":7557,"Ġ441":7558,"Ġom":7559,"140":7560,"Ġ409":7561,"Ġ362":7562,"Ġmuá»Ļi":7563,"Ġxá»īa":7564,"Hiáº¿n":7565,"khÃ´n":7566,"NháºŃt":7567,"145":7568,"Ġ262":7569,"Ġ299":7570,"Ġ359":7571,"ĠTRÃ¨NH":7572,"ĠPHáº¨M":7573,"áºµng":7574,"Pan":7575,"ĠÆ°ng":7576,"ĠFree":7577,"GiÃ´n":7578,"1806":7579,"Ġ531":7580,"Ġ426":7581,"Ġ466":7582,"Cáº£i":7583,"Ġbáº§y":7584,"Ġdáº¡o":7585,"ĠPen":7586,"Ġ328":7587,"trá»¡nh":7588,"1885":7589,"má»Ŀ":7590,"ĠmÃ¡i":7591,"ĠNÃªn":7592,"Ġ1923":7593,"Ġbá»ķng":7594,"ĠbÃ¹n":7595,"',":7596,"OÃł":7597,"SÃ¡u":7598,"tÃ´ng":7599,"Ġse":7600,"Ġsáº¯m":7601,"ĠTrá»ĭ":7602,"Ġ452":7603,"Ġoi":7604,"Äĳá»ĵ":7605,"Ġ252":7606,"Ġ392":7607,"Ġ609":7608,"1807":7609,"¨m":7610,"ĠmÃ³i":7611,"ĠrÃłnh":7612,"ant":7613,"Ġkhoang":7614,"ĠEss":7615,"Ġ480":7616,"Ġ484":7617,"Ġ347":7618,"Ġ332":7619,"Ġ269":7620,"Ġ393":7621,"Ġ561":7622,"ĠÄĳÃ´la":7623,"tlinh":7624,"ĠMoÃ³c":7625,"ÄĲÃ´":7626,"Ġ475":7627,"Ġ497":7628,"ĠSocialiste":7629,"Ãĵc":7630,"ĠbÆ¡":7631,"ĠnháºŃ":7632,"ĠrÃ©t":7633,"Ġ515":7634,"1950":7635,"Ġ253":7636,"má»«ng":7637,"Ġ495":7638,"sáºµn":7639,"Ġ459":7640,"Ġad":7641,"Ġ504":7642,"Ġ1978":7643,"!),":7644,"110":7645,"115":7646,"ngáº¯n":7647,"ĠchÃ´":7648,"ĠhÃµn":7649,"uá»¹":7650,"Ġ423":7651,"chá»¯":7652,"tali":7653,"Äĳá»©c":7654,"Ġ370":7655,"Ġ384":7656,"Ġ468":7657,"Ġ1975":7658,"ĠKapital":7659,"DP":7660,"ĠÄĳuá»ĳi":7661,"ĠgiÆ°á»Ŀng":7662,"Äĳá»Ŀ":7663,"ĠnhÃłn":7664,"ĠNgá»":7665,"Ġ514":7666,"Ġ1925":7667,"Ġ368":7668,"Ġ398":7669,"Ġwith":7670,"Æ¯á»¢C":7671,"113":7672,"91":7673,"Ġcá»įc":7674,"Ġgu":7675,"Ġdáº«":7676,"Ġbá»¥i":7677,"Ġ1825":7678,"Ġ519":7679,"Ġ623":7680,"Ġ238":7681,"Ġ391":7682,"Ġ575":7683,"ĠFrank":7684,"xo":7685,"Ġxá»³c":7686,"phá»Ľt":7687,"Ġ366":7688,"ĠTRÆ¯á»ľNG":7689,"gÃ¡c":7690,"háº¡":7691,"ws":7692,"nhiÃªu":7693,"ĠGÃ³p":7694,"Ġ352":7695,"LÃªnin":7696,"suá»ĳt":7697,"ĠToÃł":7698,"Ġ421":7699,"Ġ659":7700,"1876":7701,"Ġzur":7702,"ĠÃ£":7703,"Ġngáº§n":7704,"uyá»Ŀ":7705,"thiá»ĥu":7706,"Ġ528":7707,"Ġ443":7708,"ĠhoÃłnh":7709,"ĠGiáº¯c":7710,"tur":7711,"Ńng":7712,"Æ°Æ¡m":7713,"ence":7714,"Ġ653":7715,"ĠBand":7716,"Ġoanh":7717,"xtá»ĳp":7718,"GiÆ¡":7719,"Ġuá»ķng":7720,"tb":7721,"Ġtháº¯t":7722,"Ġ*.":7723,"ĠJustice":7724,"LÃ´":7725,"lÃ¢y":7726,"nhiá»ĩt":7727,"ĠgÃºp":7728,"chÄĥng":7729,"Ġ312":7730,"Ġ555":7731,"ÄĲáº¥y":7732,"Ġat":7733,"eich":7734,"Ġchui":7735,"Ġ483":7736,"sion":7737,"Ġ463":7738,"ĠTrá»įng":7739,"114":7740,"Ġcáº·p":7741,"chÃ¡u":7742,"ĠTom":7743,"Ġ532":7744,"zette":7745,"ĠPla":7746,"Ġ348":7747,"125":7748,"ĠkhÃŃa":7749,"Ġhá»ıt":7750,"Ġ566":7751,"konom":7752,"sáº¯p":7753,"zi":7754,"ĠÄĳÃµ":7755,"Ġbáº©m":7756,"Ġthiáº¿p":7757,"ĠÄĳá»ıp":7758,"ĠrÃ£nh":7759,"Äĳá»ĳc":7760,"Äĳáº¯n":7761,"ĠHáº¯n":7762,"Ġ1827":7763,"Ġ551":7764,"1857":7765,"NhÄ©":7766,"Ġ503":7767,"Ġ603":7768,"Ġ605":7769,"Ġ488":7770,"Ġ492":7771,"Ġ499":7772,"Ġ594":7773,"ĠTelegraph":7774,"Ġ1823":7775,"ĠTrá»Ŀn":7776,"chá»įn":7777,"khuyáº¿n":7778,"Ġ273":7779,"1875":7780,"Ġ396":7781,"92":7782,"LÃ½":7783,"ĠlÃ´ng":7784,"Ġnháº¥":7785,"Ġhá»£":7786,"ĠxÄĥng":7787,"ĠXá»©":7788,"Ġ640":7789,"Ġ479":7790,"Ġ584":7791,"Ġ1792":7792,"mÃ³c":7793,"Ġngoi":7794,"Ġxua":7795,"than":7796,"ĠGiÃ¡m":7797,"ĠOr":7798,"ĠXXIII":7799,"Ġinh":7800,"Ġ417":7801,"Ġ428":7802,"Ġar":7803,"Ġchim":7804,"á»Ľn":7805,"Ġ295":7806,"Äĳruy":7807,")...":7808,"Cr":7809,"Si":7810,"XÃ©t":7811,"cha":7812,"aise":7813,"ĠPe":7814,"Ġ559":7815,"Ġ639":7816,"Ġ660":7817,"Ã¨s":7818,"131":7819,"thÃµn":7820,"Ġ578":7821,"ĠÃ©galitÃ©":7822,"Co":7823,"Tia":7824,"bÃºt":7825,"canh":7826,"pf":7827,"vÃ¡c":7828,"Ġthá»ĩ":7829,"Ġquáº·c":7830,"giÃłu":7831,"Ġ257":7832,"Ġ471":7833,"Ġ671":7834,"roni":7835,"forme":7836,"má»ı":7837,"Ġgiáº§u":7838,"Ġkhe":7839,"Ġtam":7840,"ĠVol":7841,"Ġ298":7842,"118":7843,"Can":7844,"Hen":7845,"Tá»·":7846,"lá»Ľch":7847,"Ġ329":7848,"ĠÄĲá»ĵ":7849,"ĠXÃĥ":7850,"Ġ516":7851,"Ġ418":7852,"1819":7853,"tuyáº¿n":7854,"cháº¡y":7855,"ĠBá»ĭ":7856,"Ġ309":7857,"oniteur":7858,"huáº¥n":7859,"sÃłng":7860,"ĠvÃ©t":7861,"hÃ¹ng":7862,"quÃ¡n":7863,"ĠNay":7864,"ĠTruyá»ģn":7865,"Ġ1940":7866,"ĠQUá»ĳC":7867,"mÃ¢u":7868,"Ġrun":7869,"Ġbá»ĭch":7870,"Ġ372":7871,"artei":7872,"gs":7873,"ım":7874,"Ġrá»Ļ":7875,"ĠÄĲÃłi":7876,"Ġ411":7877,"Ġ429":7878,"Ġ437":7879,"Ġ433":7880,"ĠThÆ°a":7881,"CÃ¢u":7882,"DÄ©":7883,"ĠmÃ£":7884,"ĠXtiu":7885,"1845":7886,"ĠRÃºt":7887,"ĠLuáºŃn":7888,"loáº¡t":7889,"Ġ1806":7890,"ĠHist":7891,"Lau":7892,"ĠcÆ°á»¡i":7893,"Ġ625":7894,"Ġ1996":7895,"LCT":7896,"xá»Ń":7897,"ĠÄĲáºłI":7898,"Ġ517":7899,"Ġ422":7900,"ĠJo":7901,"ChÃŃn":7902,"Uy":7903,"ĠháºŃn":7904,"chiáº¿c":7905,"ĠCai":7906,"Ġ522":7907,"Ġ558":7908,"Ġ750":7909,"Ġ574":7910,"eurs":7911,"Iáº¿N":7912,"tÃłn":7913,"ĠÃ¬":7914,"ĠkÃŃp":7915,"Ġtháº§u":7916,"ĠdÃ¡n":7917,"ĠHÆ°á»Ľng":7918,"ĠGáº§n":7919,"ÄĲá»ĭa":7920,"ĠKháº¯c":7921,"1890":7922,"âĢĿ.":7923,"GiÃªng":7924,"gra":7925,"kun":7926,"mo":7927,"Ġdáº¡i":7928,"ĠSáº¿ch":7929,"Ġ535":7930,"Ġrá»§i":7931,"1953":7932,"ĠPaper":7933,"Ġ509":7934,"ĠRegent":7935,"112":7936,"ĠÄĳáº§n":7937,"Ġ549":7938,"ÄĲÆ°Æ¡ng":7939,"250":7940,"Ġ577":7941,"Ġngá»§i":7942,"Gia":7943,"crÆ¡":7944,"ĠNeu":7945,"ÄĳÃ´i":7946,"Äĳua":7947,"Ġ527":7948,"ĠkhoÃ¡i":7949,"Ġ572":7950,"LÆ¡":7951,"NhÃ¬n":7952,"cla":7953,"diá»ĩt":7954,"pá»ĳp":7955,"Ġ322":7956,"Ġ506":7957,"1802":7958,"Ġ576":7959,"Ġnáº¥p":7960,"Ġ447":7961,"ĠKriti":7962,"Ġ619":7963,"á»ĿI":7964,"lá»Ŀn":7965,"Ġ568":7966,"ast":7967,"dáº¡ng":7968,"gá»¥":7969,"Ġhuyáº¿t":7970,"ĠthÃ¨m":7971,"Ġ546":7972,"Ġloan":7973,"Ġ383":7974,"ĠTRÃįCH":7975,"Ġ498":7976,"Ġ675":7977,"119":7978,"HÃ´":7979,"MÃª":7980,"heit":7981,"ĠLoáº¡i":7982,"ĠSluy":7983,"ĠPhau":7984,"Ġ456":7985,"ĠPhá»¥n":7986,"tá»ĩ":7987,"Ġ406":7988,"Ġ385":7989,"Ġ389":7990,"Ġ461":7991,"Ġ1963":7992,"Ġ585":7993,"TÃ¡m":7994,"náº¡n":7995,"Ġ543":7996,"Ġ412":7997,"1825":7998,"ĠDá»±a":7999,"Ġ581":8000,"ĠEngland":8001,"To":8002,"Viá»ĩn":8003,"Ġrá»Ńa":8004,"128":8005,"Ġ474":8006,"of":8007,"Äĳá»ĳt":8008,"Ġ529":8009,"Ġ560":8010,"cá»¥c":8011,"Ġ634":8012,"ĠhÃ´i":8013,"ĠBrao":8014,"Ġ570":8015,"1792":8016,"LuáºŃt":8017,"ports":8018,"Ġá»ĥn":8019,"ĠTinh":8020,"ĠÄĲen":8021,"102":8022,"ĠkÃªnh":8023,"Ġ687":8024,"ssion":8025,"bá»Ľt":8026,"hon":8027,"táº§m":8028,"©C":8029,"Ġiá»ģ":8030,"Ġcor":8031,"ani":8032,"Ġ272":8033,"Ġ408":8034,"Ġ496":8035,"atur":8036,"Bruy":8037,"Sáº¯c":8038,"Ġ518":8039,"Ġ425":8040,"Ġ351":8041,"Ġ666":8042,"GS":8043,"á»¹h":8044,"1949":8045,"1874":8046,"Ġ673":8047,"Ġ586":8048,"khÃ´i":8049,"ĠtrÃ¢n":8050,"Ġnáº¥y":8051,"Ġá»¯u":8052,"ĠxÃ´ng":8053,"ĠTÃ²a":8054,"Æ°á»Ľt":8055,"ÄĳÃ¡p":8056,"139":8057,"chÃºt":8058,"lá»ĳc":8059,"ĠÄĳan":8060,"ĠBÃ¡":8061,"ĠBiá»ĩn":8062,"ĠMÃ¹a":8063,"203":8064,"Ġ381":8065,"verti":8066,"ĠQUÃģ":8067,"áº®C":8068,"Káº¿":8069,"cÆ°":8070,"Ġ432":8071,"Ġuá»Ļ":8072,"Cá»¥c":8073,"Ġleo":8074,"Ġ1949":8075,"138":8076,"Ġlá»¥a":8077,"konomische":8078,"bra":8079,"sá»³t":8080,"ĠlÃ¡c":8081,"ain":8082,"ĠTrÃ©c":8083,"1841":8084,"ĠTá»Ľt":8085,"123":8086,"ĠmÃ¹i":8087,"Han":8088,"ĠxÃ©n":8089,"chu":8090,"ĠÄĲá»¥ng":8091,"Ġá»ınh":8092,"Ġgiá»ın":8093,"Giáº£i":8094,"Ġ676":8095,"Sáº£n":8096,"sne":8097,"há»ĳp":8098,"ĠnhÃ©":8099,"Ġchá»įc":8100,"ĠSang":8101,"157":8102,"Báº¥t":8103,"dá»ĳp":8104,"ĠláºŃn":8105,"Ġbiáº¿ng":8106,"ĠgiÃ¢y":8107,"aux":8108,"Ġ.,":8109,"271":8110,"ĠStand":8111,"ĠchÃ´n":8112,"bÃ¡ch":8113,"ds":8114,"ĠSÆ°Æ¡ng":8115,"Ġ538":8116,"Ġ457":8117,"ĠLabour":8118,"vertiser":8119,"ráº¿ch":8120,"tá»ıc":8121,"Ġká»Ŀ":8122,"Ġ533":8123,"Ġvá»ĭnh":8124,"Ġ900":8125,"Ġáº¿m":8126,"1889":8127,"dá»©t":8128,"ĠphÃłn":8129,"ĠHáº¿ch":8130,"Ġ1809":8131,"lÃ¢m":8132,"ĠBÃģO":8133,"ĠMáº¡nh":8134,"Ġ342":8135,"thuá»ĳc":8136,"105":8137,"Ġ402":8138,"Ġ407":8139,"ĠÄĲuÃ½t":8140,"berg":8141,"ĠCorrespond":8142,"Fran":8143,"Pro":8144,"ot":8145,"Ġlá»«ng":8146,"Ã¹m":8147,"ĠAng":8148,"ÄĲan":8149,"ĠÄĳÃºi":8150,"Ġ1991":8151,"ngá»¯":8152,"báº¡c":8153,"tuá»ķi":8154,"hÃ¢y":8155,"ViÃªn":8156,"cÆ°á»Ľp":8157,"dá»ħ":8158,"Ġtia":8159,"Ġá»įi":8160,"1880":8161,"Ġ617":8162,"bá»ĵi":8163,"Ġ564":8164,"Ġá»ĳp":8165,"Ġsáº¯ng":8166,"ĠgÃ³i":8167,"ĠVua":8168,"Ġ338":8169,"Ġ548":8170,"Ġ536":8171,"134":8172,"Ġ401":8173,"Ġ582":8174,"táº£":8175,"ĠÄĳáº½":8176,"ĠNorth":8177,"ĠSx":8178,"Ġ1968":8179,"ĠchÃ¬m":8180,"clo":8181,"ture":8182,"Ġmá»ĳc":8183,"Ġtháº¯c":8184,"ĠCuá»ĳc":8185,"tá»¡nh":8186,"Ġ365":8187,"Thá»§":8188,"Ġ487":8189,"116":8190,"Du":8191,"náº¯c":8192,"skÃª":8193,"Ġmá»Ľt":8194,"ĠPÃ¡c":8195,"ĠGum":8196,"Ġ1948":8197,"rÃ´m":8198,"1877":8199,"ĠReform":8200,"xÃŃ":8201,"ĠngÃł":8202,"Ã³nh":8203,"ĠNe":8204,"Äĳá»ķ":8205,"ĠXtá»ĳc":8206,"Lai":8207,"ghá»Ŀ":8208,"1948":8209,"129":8210,"ĠHerald":8211,"ĠInternationale":8212,"ká»Ŀ":8213,"sá»ĳt":8214,"weit":8215,"ĠgÃºc":8216,"ĠVen":8217,"Ġ553":8218,"Ġac":8219,"173":8220,"ĠKhai":8221,"Ġ602":8222,"1801":8223,"Ġ667":8224,"Tuáº§n":8225,"ĠchÃ©m":8226,"ham":8227,"xÃ©p":8228,"ĠsÆ°a":8229,"Ġchá»ĳc":8230,"ĠLá»ıt":8231,"Ġ524":8232,"TrÆ°Æ¡ng":8233,"Ġ607":8234,"1892":8235,"Hy":8236,"za":8237,"ĠÄĳeo":8238,"ĠÄĲá»ĺNG":8239,"Ġ442":8240,"ĠRá»":8241,"ĠxÃ³t":8242,"Cá»§a":8243,"Ghi":8244,"Min":8245,"Ġtáº¥":8246,"ĠTÆ°á»Łng":8247,"ĠVÃŃt":8248,"ĠTráºŃn":8249,"Ġ544":8250,"Ġ419":8251,"Ġ449":8252,"Ġ446":8253,"1821":8254,"1826":8255,"Ġ618":8256,"Ġuáº£":8257,"Ġmá»ıu":8258,"1803":8259,"ĠbÃ©o":8260,"Allgemeine":8261,"Pu":8262,"Ġáº§u":8263,"Ġliá»ħu":8264,"Ġrá»¥":8265,"ĠBem":8266,"ĠSp":8267,"Ġ620":8268,"ĠCÃ¡C":8269,"cto":8270,"kÃŃt":8271,"ĠNu":8272,"elles":8273,"133":8274,"154":8275,"Ġ597":8276,"1796":8277,"1965":8278,"HÃ©c":8279,"bÃł":8280,"ĠÃłi":8281,"Ġáº¡t":8282,"Ġsá»Ļ":8283,"ĠxÆ°á»£c":8284,"Ġkhan":8285,"ĠTá»¡nh":8286,"103":8287,"124":8288,"ĠQuáº§n":8289,"Ġ604":8290,"800":8291,"Danh":8292,"bá»ĳn":8293,"Ġná»ĭnh":8294,"ĠKháº©u":8295,"135":8296,"1888":8297,"Sozia":8298,"PlÃª":8299,"bel":8300,"nÃ¡c":8301,"Ġtem":8302,"ĠÄĲÆ¯á»¢C":8303,"ÄĲÆ°á»£c":8304,"1959":8305,"Ġ465":8306,"Ġns":8307,"ĠNhÃ¬n":8308,"ĠZu":8309,"Tribune":8310,"cÃ¢y":8311,"pxÆ¡":8312,"tuyá»ĥn":8313,"Ġgiáº¥c":8314,"Ġ542":8315,"127":8316,"Ġ638":8317,"Ġ642":8318,"193":8319,"164":8320,"111":8321,"Ġ394":8322,"ĠPHÃ¡":8323,"Ġuyá»ģ":8324,"vÆ°Æ¡ng":8325,"vÃłi":8326,"xáº¥u":8327,"ĠvÆ°á»Ľng":8328,"ĠMá»ıt":8329,"trÃ¬":8330,"Ġkhá»¥":8331,"ĠPhe":8332,"Ġbá»ıng":8333,"tive":8334,"108":8335,"Ġ662":8336,"tland":8337,"ĠÃłnh":8338,"ĠBÃµy":8339,"Ġtrá»¥ng":8340,"Ġmáº¡t":8341,"Ġ521":8342,"1800":8343,"Ġcá»¥m":8344,"grá»Ļt":8345,"Ġ1964":8346,"1905":8347,"Ġcháº·ng":8348,"ĠphÆ¡i":8349,"ĠGiá»ĳng":8350,"áº¬N":8351,"bá»Ŀ":8352,"sÆ°":8353,"ĠsÆ¡n":8354,"ĠVinh":8355,"Ġ547":8356,"1893":8357,"ĠÄĳá»Ŀm":8358,"Ben":8359,"khÃ´":8360,"1839":8361,"121":8362,"Ġ505":8363,"Ġnhá»įt":8364,"Ġ363":8365,"Äĳoan":8366,"ĠEconomy":8367,"220":8368,"QUYá»ĤN":8369,"gÄĥng":8370,"máº½":8371,"viá»Ŀn":8372,"vÃ²ng":8373,"ĠGru":8374,"ÄĲáº¿":8375,"ĠHá»Į":8376,"ĠReport":8377,"Mu":8378,"gri":8379,"Ġhng":8380,"Ġhá»±c":8381,"ĠTrinh":8382,"Ġ736":8383,"Ġ565":8384,"ĠInquiry":8385,"dem":8386,"ļI":8387,"Ġháº¯":8388,"ĠCoi":8389,"ĠMon":8390,"ĠSá»Ń":8391,"cipa":8392,"Ġ669":8393,"ĠGHEN":8394,"ing":8395,"ĠkhÃ¡nh":8396,"Ġ1928":8397,"152":8398,"Ġmáº¥u":8399,"ĠTÃģC":8400,"ĠCáº¢":8401,"ĠBÃ¡ch":8402,"ĠPri":8403,"ĠPá»¥":8404,"Ġ376":8405,"Ġ695":8406,"Ġdas":8407,"ĠEssay":8408,"dÃłnh":8409,"nuÃ´i":8410,"ĠnÃ£o":8411,"Ġhoáº·":8412,"ĠTá»«ng":8413,"Ġ563":8414,"cial":8415,"1790":8416,"lá»ıt":8417,"Ġcáº§":8418,"ĠÄĳÃ¢m":8419,"ĠmÃ³ng":8420,"ĠCha":8421,"ĠhÃ²n":8422,"ná»Ŀn":8423,"thoáº£":8424,"car":8425,"Ġvá»Ľt":8426,"Ġráº«y":8427,"ĠVuyáº¿c":8428,"Ġ1926":8429,"Ġ622":8430,"Ġ651":8431,"Ġus":8432,"101":8433,"Ġ404":8434,"ĠngoÃ£n":8435,"ouv":8436,"áº¤P":8437,"Bun":8438,"cÆ¡n":8439,"tÃłu":8440,"ĠviÃªm":8441,"Ġbuá»":8442,"ĠHuyá»ĩn":8443,"ĠThiá»Ŀn":8444,"151":8445,"142":8446,"Ġ04":8447,"Ġ670":8448,"ĠKritik":8449,"600":8450,"Cuá»ĳn":8451,"dÃ²ng":8452,"xÃ´ng":8453,"Ġhá»£t":8454,"ĠTáº¡o":8455,"Ġbá»Ľi":8456,"ĠNgÃłnh":8457,"Ġ658":8458,"Ġ462":8459,"Ġ588":8460,"ĠGazette":8461,"ĠHoÃ¡":8462,"stitution":8463,"Tiá»ĩn":8464,"ĠNoÃ³c":8465,"Váº£":8466,"__":8467,"biÃªng":8468,"mÆ°á»Ŀi":8469,"tua":8470,"ĠtÃ¡p":8471,"ungs":8472,"Ġ635":8473,"153":8474,"Ġ689":8475,"chester":8476,"pÃ´ng":8477,"ngá»Ŀ":8478,"ĠLÃ¢m":8479,"tráº§n":8480,"ement":8481,"Ġ410":8482,"Ġol":8483,"1958":8484,"ele":8485,"137":8486,"Ġ601":8487,"ĠSoho":8488,"ĠGesamtausgabe":8489,"ĠEconomist":8490,"kiá»ĩm":8491,"ps":8492,"Ġlam":8493,"Ġnt":8494,"qui":8495,"Ġkháº£i":8496,"ĠNAM":8497,"Ġ647":8498,"166":8499,"Ġ302":8500,"Ġ386":8501,"ĠPhilosophie":8502,"Ġ775":8503,"eutschen":8504,"áº¤N":8505,"Ad":8506,"CÃº":8507,"ĠmáºŃp":8508,"ĠhÆ°Æ¡":8509,"Ġphá»³t":8510,"Ġoáº·":8511,"Ġ573":8512,"230":8513,"ĠĠĊ":8514,"ĠnÆ¡":8515,"ĠNim":8516,"136":8517,"ĠTRUNG":8518,"Ġ587":8519,"ĠrÄĥng":8520,"ĠVÆ¡":8521,"ĠHáº¿t":8522,"ĠÄĲá»Ĭ":8523,"Ġ1927":8524,"ĠKim":8525,"Ġ624":8526,"thá»ıa":8527,"stá»ıt":8528,"155":8529,"ĠÃºi":8530,"dÃ©t":8531,"xá»Ľch":8532,"ĠcÆ°á»Ľi":8533,"Ġnoi":8534,"Ġháº±n":8535,"Ġghá»ĭ":8536,"ĠgáºŃy":8537,"Ġtrá»³":8538,"orge":8539,"144":8540,"205":8541,"Ġ706":8542,"Ġ686":8543,"1961":8544,"VÃ´":8545,"may":8546,"Ġbáº«y":8547,"ĠrÆ¡":8548,"mancipa":8549,"Ġ397":8550,"Ġ672":8551,"Ġ598":8552,"Vor":8553,"tÃ¡i":8554,"ÄĲáº©y":8555,"Ġ610":8556,"ĠThiáº¿u":8557,"Ġquá»ın":8558,"Xuáº¥t":8559,"bá»ıc":8560,"Ġ545":8561,"ĠKÃ½":8562,"lichen":8563,"ĠthÃ¹ng":8564,"1794":8565,"ĠWochen":8566,"txÃ´":8567,"ĠÄĳao":8568,"ĠÄĳáº¯ng":8569,"Ġá»«a":8570,"Ġ747":8571,"Ġrá»£":8572,"vay":8573,"ĠthÃły":8574,"Ġrá»Ļn":8575,"ĠLen":8576,"Ġ1819":8577,"ĠTrÃ¬nh":8578,"Ġ656":8579,"ĠÆ°Æ¡n":8580,"Ġcomm":8581,"ĠÄĳáºŃu":8582,"Ġgang":8583,"aire":8584,"Ġ349":8585,"Ġ444":8586,"ÄĲáº¡o":8587,"1834":8588,"Ġ732":8589,"ĠRam":8590,"Ġ583":8591,"Ġ589":8592,"Ġ1976":8593,"blic":8594,"kiáº¿m":8595,"tÃ¡ch":8596,"Ġlá»©a":8597,"ĠLAO":8598,"ange":8599,"ĠSá»Ŀ":8600,"ĠÄĲá»Ľc":8601,"1836":8602,"dian":8603,"Ġauf":8604,"Ġ1985":8605,"RÃµ":8606,"ĠTiáº¿c":8607,"ĠNxb":8608,"ĠBá»ıo":8609,"ĠMiá»ģn":8610,"ĠViáº¿c":8611,"ĠÄĲá»Ģ":8612,"Ġ616":8613,"132":8614,"Tá»ª":8615,"ĠVá»«a":8616,"Ġ773":8617,"ĠÄĳáº¥ng":8618,"Khá»¥ng":8619,"Äĳau":8620,"Ġ615":8621,"Ġ467":8622,"ĠGiá»¯":8623,"Ġchá»ıu":8624,"gÆ°Æ¡ng":8625,"pia":8626,"Ġci":8627,"Ġ343":8628,"Ġdá»ım":8629,"Ġtá»±ng":8630,"1823":8631,"Ġ646":8632,"168":8633,"240":8634,"Ġ595":8635,"Hay":8636,"Há»ıi":8637,"Men":8638,"má»¥n":8639,"tÃ¹":8640,"xong":8641,"ĠcÃ¡t":8642,"Ġ749":8643,"á»¹ss":8644,"ĠTRANH":8645,"Ġ685":8646,"1995":8647,"Her":8648,"dÄ©":8649,"ĠVáºŃt":8650,"ĠGDP":8651,"Ġ628":8652,"...).":8653,"Ġedition":8654,"schri":8655,"256":8656,"233":8657,"Ġ1794":8658,"ĠTuyá»ĩt":8659,"ĠLÆ°á»£c":8660,"ĠPhrÃª":8661,"Ġ632":8662,"ĠChu":8663,"148":8664,"Ġ709":8665,"Ġ681":8666,"Ġ1807":8667,"ĠNHáº®C":8668,"NghiÃªn":8669,"Láº§n":8670,"tsÃª":8671,"ĠcÃ³i":8672,"ĠGran":8673,"ĠKá»·":8674,"Ġ654":8675,"Ġ643":8676,"171":8677,"Ġ1999":8678,"Sá»Ł":8679,"roa":8680,"xia":8681,"ĠsÃ¡o":8682,"Ġ636":8683,"thá»Ń":8684,"lation":8685,"ĠxÃ´viáº¿t":8686,"Ġáº©m":8687,"Ġtháº¡ch":8688,"quay":8689,"Ġlá»¥i":8690,"Ġ541":8691,"Ġ1950":8692,"tie":8693,"Há»įc":8694,"Ġ606":8695,"Ġ478":8696,"Hoáº·c":8697,"CÅ©n":8698,"Mor":8699,"gin":8700,"ĺT":8701,"Ġdáº·n":8702,"ĠCÃ¡t":8703,"ĠMoniteur":8704,"ĠHáº§u":8705,"ĠGla":8706,"1833":8707,"liche":8708,"uro":8709,"ĠFa":8710,"1886":8711,"ĠDeutschland":8712,"*;":8713,"Ã¡C":8714,"ĠtrÃłng":8715,"ĠchÃ¹":8716,"ĠSinh":8717,"ÄĲiá»ĥm":8718,"Ġ735":8719,"tis":8720,"Ġed":8721,"Mai":8722,"Sta":8723,"bon":8724,"liá»Ŀn":8725,"nghá»":8726,"ĠCá»ı":8727,"Ġsá»³ng":8728,"ĠSun":8729,"Ġ414":8730,"Ġ748":8731,"Ġchuá»Ļt":8732,"156":8733,"Ġ596":8734,"Ġuá»¥":8735,"ĠAmerican":8736,"clÆ¡":8737,"ften":8738,"gn":8739,"ka":8740,"rá»Ŀi":8741,"ĠmÃły":8742,"ĠNÄĥng":8743,"trÄĥm":8744,"ĠPháº£n":8745,"Ġ613":8746,"Ġ657":8747,"Ġ655":8748,"1955":8749,"162":8750,"phá»Ŀ":8751,"mani":8752,"ĠĠĠĠ":8753,"YÃªu":8754,"máº«u":8755,"Ġuyá»ģn":8756,"Ġnuá»¥i":8757,"Ġá»Ĺi":8758,"ÄĳrÃ´":8759,"195":8760,"ĠGiÃºp":8761,"175":8762,"Ġá»ıt":8763,"159":8764,"146":8765,"291":8766,"Ġ591":8767,"Ġ1808":8768,"ĠAdvertiser":8769,"sÃºng":8770,"vá»Ľt":8771,"ĠquÃł":8772,"ĠgiÆ°Æ¡ng":8773,"Ġ649":8774,"ĠKhuyáº¿n":8775,"ĠEast":8776,"há»Ļt":8777,"lá»Ńa":8778,"244":8779,"Ġ599":8780,"furter":8781,"219":8782,"Kin":8783,"rÆ°á»£u":8784,"Ġdáº¥y":8785,"ĠIm":8786,"Ġ1939":8787,"1813":8788,"ĠChroni":8789,"176":8790,"Ġá»ıch":8791,"161":8792,"cul":8793,"1883":8794,"ĠBerliner":8795,"Da":8796,"Quyá»ģn":8797,"háº³n":8798,"Ġ'":8799,"ngu":8800,"Ġngon":8801,"1843":8802,"iÃªri":8803,"ĠChuáº©n":8804,"1960":8805,"ĠUni":8806,"209":8807,"Ti":8808,"ráº¯c":8809,"Ġ00":8810,"Ġmá»±":8811,"Ġ1826":8812,"ĠAl":8813,"cá»Ńa":8814,"Ġ611":8815,"ĠuáºŃt":8816,"ĠKhÃ¡c":8817,"252":8818,"Ġ562":8819,"ĠNorthern":8820,"Ġbáº¡":8821,"Ġxá»Ľ":8822,"Ġbá»ĩ":8823,"Ġkhá»¥i":8824,"ĠXpÃ¡c":8825,"ÄĲoáº¡n":8826,"Ġ476":8827,"Ġ668":8828,"wealth":8829,"ĠStai":8830,"reu":8831,"Ġcháº£i":8832,"ĠchÄ©a":8833,"ĠHÆ°ng":8834,"Ġ680":8835,"1918":8836,"ĠÃ´m":8837,"Ġ698":8838,"sische":8839,"Ġheo":8840,"Ġvá»±":8841,"ĠÄĲá»ĭch":8842,"1793":8843,"ĠStandard":8844,"QU":8845,"Ġtáº§u":8846,"ĠnÆ°Æ¡ng":8847,"ĠdÅ©":8848,"ĠSmÃŃt":8849,"Ġ556":8850,"Ġ767":8851,"Ġ1966":8852,"ffi":8853,"ĠXUáº¤T":8854,"Ġtruyá»ĩn":8855,"quá»¹":8856,"Ġná»ıt":8857,"182":8858,"Ġ579":8859,"Æ¯á»ļC":8860,"Vai":8861,"gá»Ľch":8862,"yst":8863,"zen":8864,"ĠbÃłnh":8865,"ĠgÃ²":8866,"Ġgom":8867,"ĠgÆ°Æ¡m":8868,"Ġ630":8869,"Ġ751":8870,"Ġthá»ın":8871,"hÃºa":8872,"Ġ679":8873,"ĠhÃ³m":8874,"211":8875,"322":8876,"Ŀm":8877,"ĠquÃ£ng":8878,"ĠgiÃ£n":8879,"ĠCour":8880,"ĠHÃ¡t":8881,"amm":8882,"1837":8883,"Ġ621":8884,"Ġoa":8885,"149":8886,"277":8887,"ĠThuáº¿":8888,"ĠÄĲáº£NG":8889,"BÆ°á»Ľc":8890,"Berlin":8891,"ĠbÃºng":8892,"chÄĥm":8893,"NgÆ°á»£c":8894,"Ġ2020":8895,"147":8896,"tura":8897,"ĠTRIá»":8898,"xkÃª":8899,"Ġ693":8900,"uá»³nh":8901,"Ġbuá»ĵm":8902,"liá»ģn":8903,"thÃŃ":8904,"Ġ}":8905,"ĠBiá»ĥu":8906,"ĠNgÃ´i":8907,"ÄĲÆ°á»Ŀng":8908,"Ġ631":8909,"trá»£":8910,"ĠMá»©c":8911,"xman":8912,"ĠÃ¢":8913,"ĠÄĳÃ¨n":8914,"Ġsáº¥m":8915,"Ġdáº»o":8916,"ĠBá»ĳ":8917,"ini":8918,"Ġ744":8919,"Ġ494":8920,"1894":8921,"ĠÄĲá»ĭNH":8922,"kunft":8923,"ĠtÆ°á»Ľi":8924,"Ġtáº¯m":8925,"ĠnÃ©n":8926,"quá»ı":8927,"Ã²m":8928,"euple":8929,"206":8930,"Ġ2007":8931,"ĠBriefen":8932,"Ġdáº«u":8933,"ĠÄĲáº¥t":8934,"ĠPrinciples":8935,"Ġyá»ģn":8936,"ĠGÃ¢y":8937,"184":8938,"Ġ724":8939,"ĠChÃ¡nh":8940,"1917":8941,"tic":8942,"XXII":8943,"DoÃ³c":8944,"cli":8945,"pao":8946,"par":8947,"páº¿ch":8948,"xinh":8949,"ĠtrÄĥng":8950,"ĠdÃ¨":8951,"Ġquá»ĩ":8952,"ener":8953,"ĠVIá»ĩ":8954,"ÄĲÃºng":8955,"Ġ648":8956,"ĠcÃºi":8957,"ÃĢI":8958,"Ġ682":8959,"ĠCá»Ńu":8960,"216":8961,"ĠdÃ¢m":8962,"ĠÄĲun":8963,"Ġlá»ı":8964,"Ġ1824":8965,"tsky":8966,"sá»£i":8967,"Ġ776":8968,"Ġ1801":8969,"ctor":8970,"Quáº£ng":8971,"ĠMaitland":8972,"lismus":8973,"ráºŃp":8974,"zá»Ń":8975,"ngáº¡i":8976,"Ġvol":8977,"Ġ715":8978,"243":8979,"ĠJu":8980,"gá»¡":8981,"210":8982,"Ranh":8983,"lhn":8984,"pol":8985,"táºŃn":8986,"Ġáº·c":8987,"Ġxao":8988,"Ġhá»Ļp":8989,"ĠGe":8990,"ĠXen":8991,"183":8992,"hÃªnh":8993,"áº³m":8994,"ĠTuáº§n":8995,"gáº¥p":8996,"ĠhÄ©":8997,"Ġxáº¥p":8998,"cháº¥m":8999,"ĠTay":9000,"ĠBao":9001,"ĠGÃºt":9002,"ĠXiÃªm":9003,"141":9004,"ĠBrÃ©t":9005,"Ġchá»Ľp":9006,"ĠTRONG":9007,"Ġ694":9008,"1795":9009,"215":9010,"ĠÃły":9011,"á»Ĺ":9012,"Ġchá»³c":9013,"ĠLáº¥y":9014,"Ġphá»ķi":9015,"Ġ721":9016,"ĠkhoÃ©":9017,"208":9018,"245":9019,"Cá»§A":9020,"ĠÄĲá»ĵNG":9021,"á»Ĳ":9022,"Ġmiá»ĩt":9023,"Ġháº»o":9024,"ĠxÃł":9025,"ĠPau":9026,"autsky":9027,"Ġ637":9028,"Ġ741":9029,"ĠoÃ¡n":9030,"ĠRÃ¢y":9031,"Ġthá»§ng":9032,"174":9033,"OÃłN":9034,"PhÃ":9035,"bÄĥng":9036,"ĠáºŃn":9037,"ĠClÃª":9038,"ĠMá»Ľi":9039,"thÄĥm":9040,"Ġyáº¿t":9041,"Ġ742":9042,"Ġeconom":9043,"ĠGiá»ı":9044,"ĠDis":9045,"ĠBee":9046,"Ġáº«c":9047,"Cl":9048,"Kiá»ĥm":9049,"MÃł":9050,"báº¯n":9051,"mun":9052,"Ġ''":9053,"ĠÄĳáºŃm":9054,"ĠBáº¯t":9055,"ĠPhá»ĳi":9056,"ĠchuÃ´ng":9057,"273":9058,"Ġ571":9059,"1798":9060,"Ġ777":9061,"edia":9062,"hand":9063,"lÃºa":9064,"xbÃ©c":9065,"Ġcá»Ĺ":9066,"ĠthÃ¡p":9067,"Ġchua":9068,"Ġá»³c":9069,"ĠTuá»ĳc":9070,"ĠBung":9071,"ĠPrÃ´":9072,"ĠPhrÃ¢y":9073,"ĠKiá»ĩn":9074,"192":9075,"phá»ıp":9076,"Ġnhá»į":9077,"359":9078,"Ġ661":9079,"Ġáº«t":9080,"ĠVolkszeitung":9081,"cá»ı":9082,"rÃ£i":9083,"tiá»Ŀu":9084,"zá»¹":9085,"Ġdiá»ħu":9086,"Ġlá»ĵng":9087,"thiá»ĩp":9088,"1838":9089,"Phrai":9090,"Thi":9091,"Ġex":9092,"163":9093,"phá»ıi":9094,"247":9095,"Ġ1970":9096,"228":9097,"BoÃ³c":9098,"Demokrat":9099,"dÄĥng":9100,"ĠÆ°á»Ŀng":9101,"Ġnáº£n":9102,"Ġtháº¯m":9103,"Ġhá»ıp":9104,"Ġá»Ĳ":9105,"1832":9106,"Ġ612":9107,"Ġ722":9108,"Ġ733":9109,"gari":9110,"Ġthá»¥t":9111,"Ġ592":9112,"1799":9113,"ĠDeans":9114,"Iá»ĨN":9115,"ghÃ©t":9116,"ná»ĳt":9117,"ud":9118,"xpi":9119,"Ä¨":9120,"ĲN":9121,"Ġphiá»ĩn":9122,"ĠLiáº¿p":9123,"Ġthoáº£i":9124,"242":9125,"GiÃ¡o":9126,"Ġ699":9127,"pec":9128,"Ġpolitique":9129,"ĠÄĳÆ¡m":9130,"Ġluá»ĵng":9131,"229":9132,"ear":9133,"gÃµy":9134,"rÃ©p":9135,"vÃ¢y":9136,"Ġsáº£":9137,"ĠÄĲá»Ļc":9138,"Ġgá»ı":9139,"á»ĽI":9140,"Há»£p":9141,"Giáº£":9142,"1884":9143,"ĠSá»Ńa":9144,"uardian":9145,"ĠDeanstreet":9146,"VÃŃ":9147,"VÃ¢y":9148,"xli":9149,"ĠCUá»ĺC":9150,"Ġmá»ĵm":9151,"Ġ557":9152,"Ġ1952":9153,"185":9154,"chá»©a":9155,"204":9156,"ná»Ĺi":9157,"Phá»¥":9158,"214":9159,"dáº§u":9160,"xáº¿p":9161,"Ġ]":9162,"ĠmÄĥng":9163,"Ġgiáº¿m":9164,"quÃªn":9165,"Ġráº¡ng":9166,"Ġá»ĵi":9167,"áº«C":9168,"Ġ645":9169,"Ġ731":9170,"thá»¥":9171,"phá»©c":9172,"207":9173,"khá»ĳ":9174,"Iá»Ģ":9175,"Ġcá»§i":9176,"run":9177,"tam":9178,"ĠmiÃªn":9179,"quen":9180,"Ġnghiá»ĩt":9181,"ĠVo":9182,"1957":9183,"249":9184,"Ġnhá»©t":9185,"Ġ593":9186,"ĠtÃ²ng":9187,"ĠlÃ³ng":9188,"Ġlá»±u":9189,"Ġnong":9190,"Ġá»Ľnh":9191,"Ġgiá»įt":9192,"ĠDemokrati":9193,"ĠChÆ¡i":9194,"1930":9195,"sá»£":9196,"mission":9197,"Ġ1977":9198,"1891":9199,"Láº¡i":9200,"Van":9201,"]).":9202,"xá»©ng":9203,"Ġláº£ng":9204,"Ġtá»§":9205,"one":9206,"Ġ746":9207,"194":9208,"Ġtoa":9209,"236":9210,"Ġ688":9211,"mÃ£n":9212,"Ġsáº£o":9213,"Ġná»ĳt":9214,"Ġxtá»Ļc":9215,"ĠPÃ©t":9216,"ĠGre":9217,"Ġit":9218,"Ġ633":9219,"143":9220,"278":9221,"375":9222,"Ġ697":9223,"á»ħN":9224,"Ġuá»ı":9225,"ĠPolitisch":9226,"GÆ¡":9227,"KÃª":9228,"ĠÄĲÆ°a":9229,"ĠBra":9230,"Ġá»ĩu":9231,"tzgen":9232,"ekly":9233,"fer":9234,"ls":9235,"ĠáºŃt":9236,"ĠÄĳÃ¡y":9237,"ĠmÃºa":9238,"ĠduyÃªn":9239,"Ġhá»±":9240,"Ġrung":9241,"Äĳai":9242,"Ġphá»¥ng":9243,"Ġ629":9244,"270":9245,"Chá»Ľnh":9246,"Ġ690":9247,"ĠGrÃ¢y":9248,"schrift":9249,"BÃªn":9250,"XH":9251,"Ġnáº·c":9252,"Ġchai":9253,"ĠCáº£nh":9254,"Ġtrá»©ng":9255,"phu":9256,"ĠhÃ£o":9257,"lá»«a":9258,"Tá»īnh":9259,"ĠWer":9260,"ller":9261,"ĠghÃ©":9262,"Bru":9263,"váº»":9264,"xÄĥng":9265,"ĠAssociation":9266,"Ġ1953":9267,"Ġ728":9268,"Trang":9269,"Ġvá»ĭt":9270,"ĠBá»ķ":9271,"280":9272,"279":9273,"ĠGuáº¿c":9274,"217":9275,"Láº½":9276,"oc":9277,"sá»Ľm":9278,"xÄĳen":9279,"Ġnom":9280,"Ġquo":9281,"ĠrÅ©":9282,"Ġxáº»":9283,"Äĳá»ĳp":9284,"Ġ703":9285,"Ġ665":9286,"Blin":9287,"Gri":9288,"Pá»Ŀ":9289,"tel":9290,"xá»©":9291,"á»ĻNG":9292,"ĠtrÆ¡":9293,"ĠCÃģCH":9294,"Äĳáº¿ch":9295,"Ġngháº¹t":9296,"ĠthÃª":9297,"ĠHand":9298,"1835":9299,"Ġ652":9300,"gháº¿t":9301,"Ġbá»ınh":9302,"Ġrá»ĥ":9303,"399":9304,"paedia":9305,"etz":9306,"pril":9307,"ĠsÃ¡":9308,"ĠCá»ıch":9309,"ĠCÃĶNG":9310,"Ġ614":9311,"ĠEx":9312,"ÃģT":9313,"Ġ803":9314,"rá»«ng":9315,"HÃłng":9316,"má»±c":9317,"sáº¯t":9318,"ĠCáº¤P":9319,"ĠHe":9320,"ĠXmá»Ľt":9321,"Ã©e":9322,"197":9323,"Ġá»ĭa":9324,"Vá»«a":9325,"PhÃª":9326,"plo":9327,"Ġváº§n":9328,"Ġphá»ĵng":9329,"ĠRhein":9330,"ĠÃģc":9331,"ĠCrÃ´n":9332,"ĠÃªm":9333,"Times":9334,"Ġ434":9335,"158":9336,"Ġ590":9337,"1887":9338,"213":9339,"sá»ıch":9340,"nha":9341,"ĠTrÃŃch":9342,"Ġ1937":9343,"169":9344,"ÄĲá»©ng":9345,"257":9346,"ĠVÃµ":9347,"ĠHá»¥":9348,"Ġ726":9349,"Ġ737":9350,"274":9351,"276":9352,"269":9353,"Ġxuáº¥":9354,"Hive":9355,"clopaedia":9356,"IÃĬN":9357,"ĠmÃ´ng":9358,"ĠMiáº¿n":9359,"Interna":9360,"Ġ708":9361,"Lá»£i":9362,"331":9363,"De":9364,"bá»¥":9365,"txá»ĳp":9366,"ĠÄĳáº¥m":9367,"ĠmÃ©o":9368,"Ġdai":9369,"ĠÄĳá»¥c":9370,"Ġ1947":9371,"chá»Ľ":9372,"235":9373,"Ġnhá»ĵi":9374,"ĠPHáº¥":9375,"ĠWochenblatt":9376,"Gáº§n":9377,"Káº»":9378,"máº¡i":9379,"Ġpi":9380,"Ġxiáº¿t":9381,"ĠHá»ĳp":9382,"tru":9383,"167":9384,"trá»¯":9385,"333":9386,"1786":9387,"gÃ´n":9388,"sá»Ľt":9389,"Ġcong":9390,"ĠÄĳáº¯m":9391,"ĠlÃ©n":9392,"ĠÄĲÆ¡n":9393,"Ġ725":9394,"255":9395,"sses":9396,"Ġ1971":9397,"zá»¹ge":9398,"CÃ´n":9399,"kÃ¨m":9400,"tlhn":9401,"Ġpe":9402,"ĠInd":9403,"1816":9404,"Ġ626":9405,"Ġ743":9406,"há»Ļc":9407,"201":9408,"phÃ³":9409,"Rai":9410,"SÃ¡c":9411,"wer":9412,"ĠbÃ¡t":9413,"chiá»ģu":9414,"ĠTáº¡m":9415,"ĠÄĲá»Ļng":9416,"ĠCy":9417,"thÃ¡c":9418,"Ġ1936":9419,"tá»³t":9420,"Ġ2009":9421,"Ġ802":9422,"Lafargue":9423,"*)":9424,"hÃ¬":9425,"Ġpin":9426,"ĠMuy":9427,"1929":9428,"ĠChá»Ľ":9429,"258":9430,"266":9431,"354":9432,"444":9433,"QuÃ¡":9434,"Ġlá»ģu":9435,"ĠMÃ¡txcÆ¡va":9436,"Ġtháº³m":9437,"ĠdÃł":9438,"ĠIr":9439,"Ġ720":9440,"Ġ711":9441,"Ġ723":9442,"Ġ727":9443,"xtin":9444,"239":9445,"Ġ683":9446,"Ġ770":9447,"700":9448,"lÅ©":9449,"Ġcá»į":9450,"Ġngáº¯t":9451,"Ġvá»Ŀ":9452,"Ġkhá»¥n":9453,"1827":9454,"tio":9455,"ĠkhÃŃt":9456,"Ġ804":9457,"Ġ774":9458,"Ġ1795":9459,"ĠWorking":9460,"sÃ´":9461,"tung":9462,"Ġhá»«a":9463,"Ġ716":9464,"Ġ769":9465,"lier":9466,"172":9467,"Ġ464":9468,"Ġ674":9469,"Ġláº»o":9470,"Háº¡":9471,"Ná»ģn":9472,"bay":9473,"cre":9474,"háº¡nh":9475,"sei":9476,"Ġtáº¥p":9477,"ĠSáº¯p":9478,"ĠThoáº¡t":9479,"303":9480,"Ġ608":9481,"ĠGuÃª":9482,"ĠAngiÃªri":9483,"Rá»¥":9484,"Ġuá»ĳc":9485,"nhÄ©":9486,"ĠbÃłng":9487,"ĠtrÆ°á»Ľng":9488,"áº§N":9489,"ĠCung":9490,"ĠIIc":9491,"261":9492,"262":9493,"Sá»©c":9494,"ĠGrim":9495,"212":9496,"bre":9497,"vÄ©":9498,"Ġmáº¥":9499,"ĠrÃŃch":9500,"Äĳáº¹p":9501,"trie":9502,"xte":9503,"Ġ805":9504,"Ġ1967":9505,"ĠLiter":9506,"dera":9507,"Ġ784":9508,"cai":9509,"ĠÄĳiá»Ŀn":9510,"ĠÄĳá»Ĺ":9511,"ÄĲá»ķi":9512,"Há»ĩ":9513,"ĠCHá»§":9514,"ĠGIAI":9515,"mancipacion":9516,"226":9517,"MÃ´n":9518,"Mar":9519,"VÃª":9520,"Ġ%":9521,"ĠnhÃ©t":9522,"Ġdeutschen":9523,"Ġhá»³t":9524,"Ġráº§y":9525,"ĠxÃºa":9526,"ĠSáº¢N":9527,"Ġsá»Ńng":9528,"Ġas":9529,"oire":9530,"ĠkhÃ³i":9531,"259":9532,"288":9533,"Ġnhá»ķ":9534,"ĠBrau":9535,"tto":9536,"Ġ705":9537,"giá»ıo":9538,"320":9539,"tÆ°á»Ŀng":9540,"ĠlÆ°á»Ľt":9541,"ĠsÃ©t":9542,"ĠLá»³c":9543,"ĠQuyá»ĥn":9544,"1947":9545,"Ġ1997":9546,"Ġ787":9547,"TÃªn":9548,"má»¥":9549,"phÃ´":9550,"ĠchÃł":9551,"ĠrÃ¡ch":9552,"181":9553,"ThÆ°á»£ng":9554,"237":9555,"ĠMá»ĺT":9556,"ĠTHáº¦N":9557,"Ġ701":9558,"ature":9559,"chÃºa":9560,"ĠSá»Ĳ":9561,"sáº¡ch":9562,"ĠcÃµy":9563,"nháºŃt":9564,"Ġcá»£t":9565,"ĠgÃµ":9566,"ĠHO":9567,"ĠHiá»ĥn":9568,"Ġ1817":9569,"ĠGÃ´n":9570,"Ġ718":9571,"Ġoá»ı":9572,"355":9573,"Quáº£":9574,"ĠZukunft":9575,"()":9576,"319":9577,"ĠbÃºa":9578,"Ġren":9579,"Ġmá»ĵi":9580,"246":9581,"285":9582,"ĠghÃ©p":9583,"ĠHuáº¿":9584,"ordia":9585,"ĠQUYáº¿T":9586,"com":9587,"rá»ıt":9588,"Ġrá»ĭ":9589,"Ġxá»Ļ":9590,"ĠTsi":9591,"ĠNáº¯m":9592,"Ġ712":9593,"Ġ730":9594,"Ġ756":9595,"list":9596,"ĠPhá»Ļc":9597,"295":9598,"Ġ677":9599,"ĠCyclopaedia":9600,"Bá»Ľc":9601,"NhÃ³m":9602,"mar":9603,"váº¡n":9604,"á»ķ":9605,"Ġcáº©u":9606,"ĠchÃ³i":9607,"Ġkhiáº¿t":9608,"ĠNoi":9609,"ĠMáºł":9610,"ĠThiá»ĩu":9611,"Phu":9612,"ÄĳÃ³i":9613,"241":9614,"Ġ663":9615,"Ġmit":9616,"Lá»±c":9617,"háº¡ng":9618,"rÃ¡c":9619,"á»įn":9620,"Ġtráº¯c":9621,"Ġngáº¥m":9622,"ÃŃu":9623,"Ġ1822":9624,"191":9625,"ĠTrá»«":9626,"SÄ©":9627,"cri":9628,"ĠtÃ¡t":9629,"Ġcla":9630,"ĠbÃº":9631,"Ġmá»ĳt":9632,"chiÃªn":9633,"ĠBÃŃt":9634,"ĠHáºŃu":9635,"Ġ1800":9636,"ĠSao":9637,"ĠKiáº¿n":9638,"ĠThá»ĥ":9639,"ĠManchester":9640,"Ġ778":9641,"Ġ1981":9642,"ĠchÃ¬a":9643,"218":9644,"446":9645,"SÃ¡ng":9646,"Ġváº«":9647,"ĠtrÃł":9648,"ĠPum":9649,"enti":9650,"thuá»·":9651,"ĠDem":9652,"á»¹rich":9653,"1912":9654,"ĠKhÃ¡i":9655,"ures":9656,"232":9657,"234":9658,"275":9659,"Ġ772":9660,"317":9661,"cáº£n":9662,"xbua":9663,"Ġlá»±":9664,"ĠBá»ı":9665,"thá»Ľch":9666,"238":9667,"265":9668,"Ġ2008":9669,"Ġ678":9670,"ĠHistory":9671,"dt":9672,"gá»ĳc":9673,"nÃ¡t":9674,"Ġlá»Ļc":9675,"Ġbáº¥p":9676,"ĠCi":9677,"ĠPartei":9678,"Ã¹n":9679,"ĠPháºŃt":9680,"1824":9681,"370":9682,"Ġ1972":9683,"bus":9684,"váº¿ch":9685,"zei":9686,"nháº¹":9687,"ĠlÃ³i":9688,"Ġngáº¥y":9689,"ĠrÃ³":9690,"Ġráº¡c":9691,"ĠTxÃª":9692,"Æ¯á»Ľ":9693,"mith":9694,"ĠYorker":9695,"Arbeit":9696,"dáº¥u":9697,"kÃŃnh":9698,"ĠsÃ©c":9699,"ĠCá»±u":9700,"Ġquyáº¿n":9701,"ĠLá»Ľp":9702,"Ġná»ĥ":9703,"231":9704,"272":9705,"264":9706,"360":9707,"ĠHermann":9708,"Má»Ł":9709,"Ver":9710,"gá»ĳt":9711,"Ġnáº¥c":9712,"Ãªxia":9713,"ĠrÆ°á»Łi":9714,"ĠLá»ħ":9715,"Ġ753":9716,"ÄĳÃ´nÃªxia":9717,"Ġ785":9718,"mon":9719,"Ġcá»Łi":9720,"ĠLá»¥":9721,"ĠGuardian":9722,"Ġoan":9723,"Ġrá»Ŀn":9724,"Tráº§n":9725,"Ġá»ım":9726,"ley":9727,"soáº¡n":9728,"Ġrá»¥t":9729,"Ġáº¡n":9730,"ĠtÃµy":9731,"Ġdáº«m":9732,"ĠNá»ĳp":9733,"ĠSÆ¡":9734,"254":9735,"sÆ¡vÃŃch":9736,"ĠPhil":9737,"ĠNGHá»ĭ":9738,"ĠNgá»įc":9739,"530":9740,"BiÃªn":9741,"BÃµy":9742,"Daily":9743,"rd":9744,"Ġghá»Ļt":9745,"ĠÄĳá»Ľi":9746,"ĠÄĲÃ¨NH":9747,"ĠMall":9748,"Ġhoi":9749,"Ġ5000":9750,"chá»ĵng":9751,"ĠtuÃ´n":9752,"ĠkhÃ³c":9753,"Ġloa":9754,"ĠCá»Ķ":9755,"ChÆ°a":9756,"2000":9757,"346":9758,"cáº¥m":9759,"Ġáº±ng":9760,"ĠngÃ²i":9761,"ĠTuyá»Ŀn":9762,"ĠChá»£":9763,"Ġcá»ķng":9764,"Ġ1998":9765,"227":9766,"330":9767,"Ar":9768,"Cá»ıi":9769,"lÃ£ng":9770,"ses":9771,"ĠtáºŃ":9772,"ĠbÃ²n":9773,"Ġnan":9774,"Ġá»±ng":9775,"ĠNáºµng":9776,"áº½n":9777,"ĠApril":9778,"ĠÄĲá»ħN":9779,"Ġ755":9780,"ĠThÆ¡":9781,"ĠkÃ©p":9782,"phá»ın":9783,"ĠGrund":9784,"NÃ¢ng":9785,"Ġtiá»ĩm":9786,"283":9787,"Ġ696":9788,"Ġ792":9789,"ellschaft":9790,"Becker":9791,"Pe":9792,"khÃª":9793,"politi":9794,"Ġei":9795,"ĠnhÃło":9796,"Ġháº³":9797,"Ġá»£p":9798,"ĠÄĲÃ¡p":9799,"ÄĳÃłi":9800,"ĠMÆ¯á»ľI":9801,"ĠSá»Ļc":9802,"rieg":9803,"Ġ757":9804,"tation":9805,"kim":9806,"tsÃ¡c":9807,"Ġ684":9808,"á»ĥC":9809,"Ġ1986":9810,"ĠCáº¢NH":9811,"!,":9812,"335":9813,"bá»ĳp":9814,"hin":9815,"máº¡ch":9816,"ĠtÃ²i":9817,"tráºŃt":9818,"ĠPhrÃŃt":9819,"ĠRuá»Ļng":9820,"Ġ801":9821,"soÃ¡t":9822,"HÃ¡c":9823,"fe":9824,"stÆ¡":9825,"ĠTÃ´m":9826,"ĠViá»ħn":9827,"Ġ850":9828,"giÃ´":9829,"ĠChuyá»ĥn":9830,"1789":9831,"Ġ1200":9832,"Ġ1992":9833,"380":9834,"ĠTHU":9835,"Ġbis":9836,"Ġ799":9837,"ourier":9838,"ĠbÃ¬a":9839,"tá»Ļ":9840,"váº£i":9841,"Ġnáº©y":9842,"ĠBá»ĳn":9843,"ĠLáº¡ng":9844,"ĠhÃ©t":9845,"ĠÄĲá»Ĺ":9846,"Ã©s":9847,"elt":9848,"Ġá»Ľn":9849,"Ġ664":9850,"340":9851,"gne":9852,"há»©a":9853,"ĠrÄĥn":9854,"ĠLÃ´m":9855,"uá»¥ng":9856,"Ġoáº£":9857,"ĠkhÃ¢m":9858,"Pháº¡m":9859,"396":9860,"ĠÄĲuma":9861,"Ġ704":9862,"QuÃµn":9863,"Vá»Ģ":9864,"lumes":9865,"225":9866,"Ste":9867,"TÃ´":9868,"Ãªnh":9869,"ĠrÃ¨":9870,"chiáº¿u":9871,"ĠSec":9872,"Ġ1938":9873,"ĠPall":9874,"Ġthá»ıc":9875,"Ġfa":9876,"Ġ2006":9877,"Hoáº¡t":9878,"224":9879,"325":9880,"Bá»ĳn":9881,"Ġhia":9882,"ĠCáºŃu":9883,"ĠVáº¤N":9884,"Ġ1810":9885,"hoang":9886,"ĠFe":9887,"281":9888,"paper":9889,"Ġ691":9890,"ctober":9891,"ĠChronicle":9892,"dáº¡y":9893,"Ġhá»¯":9894,"thÆ°á»Łng":9895,"Ġ738":9896,"ĠPhá»ĳc":9897,"289":9898,"298":9899,"Ġ1804":9900,"ĠAuflage":9901,"Car":9902,"Lo":9903,"May":9904,"uch":9905,"ngá»Ļ":9906,"ĠnhÆ¡":9907,"Ġres":9908,"ther":9909,"ĠPhlÆ¡":9910,"ĠCá»§a":9911,"287":9912,"ĠGiá»¥":9913,"xcam":9914,"ĠLUÃĤN":9915,"ĠHá»ĮC":9916,"Xu":9917,"cie":9918,"pxá»Ľch":9919,"zer":9920,"ĠtÃ´ng":9921,"ĠcÃµn":9922,"ĠvÃ´i":9923,"hÃ©o":9924,"ĠsÆ°Æ¡ng":9925,"Ġdáº£i":9926,"Ġ729":9927,"Ġ745":9928,"giÃ¡n":9929,"ĠhÃ£nh":9930,"305":9931,"Chá»«ng":9932,"222":9933,"Ġ1969":9934,"1902":9935,"GÃ³p":9936,"TÃ¨NH":9937,"Xt":9938,"láº¯m":9939,"sÃ¡c":9940,"Ġnhuá»ĩ":9941,"Ġtre":9942,"Ġphao":9943,"Ã¬u":9944,"ĠCrÃ´":9945,"Ġlá»įi":9946,"tha":9947,"1829":9948,"251":9949,"ssalle":9950,"Ġnatura":9951,"))":9952,"PhÃ´n":9953,"Ġcáº¥":9954,"Ġvan":9955,"ĠvÃłn":9956,"Ġchen":9957,"ĠBIá»":9958,"rio":9959,"phá»Ľ":9960,"368":9961,"2007":9962,"1901":9963,".}":9964,"312":9965,"426":9966,"534":9967,"BrÃª":9968,"VÃ©c":9969,"vang":9970,"ĠÃµy":9971,"ĠtrÃ¡o":9972,"ĠgÃ³":9973,"Ġghá»Ŀ":9974,"Ġphim":9975,"Ġráº§m":9976,"Ġ717":9977,"xtá»¥n":9978,"309":9979,"vui":9980,"XXIII":9981,"Iá»ĩM":9982,"321":9983,"Cáº¥p":9984,"cÃ¢n":9985,"xá»Ŀ":9986,"ĠbáºŃy":9987,"Ġpháº«u":9988,"ĠPháº¥n":9989,"Ġ714":9990,"kháº©n":9991,"Trá»":9992,"356":9993,"loáº¡n":9994,"Oá»ĥC":9995,"dá»Ļp":9996,"sca":9997,"ĠÃ´i":9998,"ĠmÃ©t":9999}